<s>
<e>
<unk>
,
，
the
.
。
of
to
and
in
a
is
that
—
’
s
的@@
for
“
”
–
、
be
和@@
as
The
on
are
it
with
not
by
has
在@@
have
（
）
will
%
from
its
an
their
more
or
was
But
would
at
this
而@@
是@@
they
但@@
which
US
)
(
In
than
对@@
countries
but
的
China
can
;
将@@
world
been
·
economic
all
与@@
了@@
：
为@@
美国@@
one
:
government
only
中@@
不@@
should
new
growth
other
also
we
his
global
其@@
about
Europe
也@@
从@@
political
could
no
以及@@
such
who
most
有@@
被@@
if
were
people
以@@
even
now
这一@@
years
并@@
country
European
many
地@@
这些@@
financial
This
？
�
?
他们@@
我们@@
there
中国@@
when
some
或@@
已经@@
-@@
政府@@
so
economy
一个@@
do
must
了
these
经济@@
来@@
；
It
这@@
time
因为@@
所@@
what
into
may
都@@
policy
he
had
如果@@
out
国家@@
上@@
much
欧洲@@
them
可以@@
到@@
会@@
他@@
un@@
like
And
就@@
power
over
大@@
up
crisis
because
一@@
United
EU
政治@@
让@@
新@@
人@@
I
A
As
international
更@@
America
year
需要@@
它@@
public
t
要@@
全球@@
between
those
中
two
可能@@
while
没有@@
&amp;
re@@
通过@@
尽管@@
但是
well
包括@@
性@@
事实上
向@@
need
less
比@@
our
any
just
market
debt
For
way
both
$
first
Russia
against
system
最@@
欧盟@@
If
how
用@@
leaders
after
我@@
in@@
能@@
banks
investment
必须@@
example
change
become
后@@
S@@
too
当@@
政策@@
markets
之@@
等@@
它们@@
却@@
own
世界@@
make
正在@@
trade
时
进行@@
last
Japan
能够@@
前@@
Indeed
市场@@
state
support
支持@@
rates
问题
governments
这种@@
于@@
important
提供@@
因此@@
far
ing
国际@@
时@@
社会@@
还@@
where
问题@@
States
把@@
者@@
long
interest
自@@
recent
高@@
应该@@
national
military
India
including
President
给@@
这样的@@
policies
无@@
由@@
American
无法@@
银行@@
许多@@
成为@@
still
其他@@
today
rate
人
着@@
增长@@
Chinese
same
does
GDP
economies
并且@@
social
through
future
since
则@@
development
end
That
现在@@
人们@@
being
这个@@
作为@@
投资@@
yang
出@@
认为@@
Iran
war
Germany
那些@@
此外
k@@
capital
开始@@
might
likely
要求@@
那么@@
所有@@
prices
下@@
s@@
fiscal
real
security
take
high
made
一些@@
without
large
work
导致@@
B@@
1
major
es
英国@@
billion
us
ed
中的@@
》
地区@@
《
able
甚至@@
更加@@
energy
该@@
实现@@
可@@
use
任何@@
problem
nuclear
did
的经济@@
金融@@
good
right
current
他们的@@
risk
better
foreign
还是@@
日本@@
result
德国@@
而且@@
对于@@
fact
多@@
P@@
增加@@
cannot
但是@@
already
俄罗斯@@
美国的@@
under
国@@
di@@
公司@@
course
tax
T@@
发展@@
获得@@
过@@
demand
2
长期@@
Bank
就是@@
often
因此
ate
They
i
C@@
解决@@
then
very
So
A@@
d@@
states
another
印度@@
There
dan
Israel
拥有@@
而不是@@
central
继续@@
国家
改革@@
M@@
ation
part
help
后
among
Obama
Moreover
We
order
如@@
主要@@
的人@@
又@@
To
institutions
ated
是
Asia
或者@@
&quot;
者
民主@@
说@@
安全@@
新的@@
eurozone
million
er
rather
D@@
得@@
before
危机@@
region
East
b@@
虽然@@
由于@@
来自@@
只有@@
least
并不@@
Union
像@@
around
three
及@@
去@@
oil
money
led
企业@@
increase
role
past
health
income
ating
World
贸易@@
F@@
down
G@@
采取@@
债务@@
t@@
性
little
也是@@
的政治@@
South
p@@
e@@
companies
影响@@
国家的@@
内@@
especially
back
他的@@
人的@@
似乎@@
monetary
以色列@@
自己的@@
case
problems
higher
L@@
计划@@
保护@@
最终@@
spending
few
斯@@
5
方面@@
ers
年@@
human
货币@@
whether
K@@
不是@@
private
&apos;s
使@@
随着@@
重新@@
H@@
dis@@
目前@@
中国的@@
remains
democracy
needs
process
approach
上
正@@
Trump
France
needed
With
伊朗@@
At
实施@@
拉@@
inflation
e
总统@@
an@@
g@@
化@@
When
next
反@@
同时@@
rise
即@@
使用@@
法国@@
建立@@
de@@
developing
希望@@
领导人@@
小@@
Iraq
education
非@@
3
climate
国内@@
clear
reform
仍然@@
toward
西方@@
尔@@
最近@@
一直@@
Africa
希腊@@
未来@@
已@@
E@@
的国家@@
se@@
特@@
/
一种@@
price
好@@
非常@@
提高@@
point
性的@@
自己@@
different
个@@
从而@@
y
however
given
如何@@
you
others
strong
come
during
reforms
domestic
政策
low
means
costs
财政@@
说
almost
欧元区@@
R@@
o
further
ago
Korea
why
decades
减少@@
来说
ting
continue
收入@@
set
决定@@
remain
al
具有@@
研究@@
当然
里@@
West
不会@@
sector
名@@
家@@
en@@
N@@
技术@@
ted
seems
o@@
将会@@
off
我们的@@
currency
不能@@
#
反对@@
women
和其他@@
风险@@
election
business
受到@@
为了@@
k
人口@@
members
poor
efforts
growing
20
used
战略@@
Greece
接受@@
particularly
机构@@
citizens
within
都是@@
得到@@
long-term
yet
population
increasingly
difficult
level
带来@@
key
f@@
完全@@
这是@@
control
而是@@
组织@@
发@@
关于@@
降低@@
though
u@@
低@@
能源@@
存在@@
上的@@
ber@@
itself
potential
共同@@
y@@
benefits
based
受@@
是一个@@
ts
best
While
亚洲@@
分@@
你@@
工作@@
North
保持@@
enough
特别是@@
provide
进一步@@
put
利@@
如此@@
One
自由@@
greater
regional
改变@@
主义@@
After
选择@@
IMF
longer
某些@@
question
peace
By
产生@@
还有@@
4
rights
law
再@@
terms
regime
之间的@@
近@@
m@@
a@@
agreement
计划
相反
Turkey
emerging
大部分@@
Yet
her
10
per
services
interests
管理@@
c@@
labor
之间@@
Middle
比如
recently
水@@
bank
几乎@@
resources
thus
发生@@
日@@
想@@
share
德@@
只@@
What
合作@@
i@@
each
军事@@
number
politics
也许@@
former
就会@@
增长
的是@@
workers
比如@@
公共@@
Arab
life
是否@@
联合国@@
重@@
总@@
never
say
造成@@
every
place
确保@@
只是@@
天@@
n@@
children
These
开@@
War
face
持续@@
仍@@
不断@@
控制@@
cost
history
行动@@
严重@@
一样
l@@
free
6
出口@@
small
Syria
democratic
di
reduce
2008
她@@
age
利用@@
possible
特朗普@@
谈判@@
stability
帮助@@
7
2@@
两@@
Western
上述@@
其中@@
On
的新@@
go
value
3@@
risks
化
again
起@@
le@@
法@@
force
资本@@
impact
移民@@
成功@@
做@@
O@@
关系@@
want
选举@@
common
New
即使@@
价格@@
50
如今
st@@
核@@
strategy
issues
forces
土耳其@@
教育@@
conflict
成@@
本@@
美元@@
们@@
力@@
目标@@
reason
改善@@
get
progress
Even
各国@@
society
unemployment
effective
sense
member
lead
v@@
及其@@
历史@@
jobs
local
战争@@
ar@@
great
investors
him
者的@@
令人@@
themselves
ever
see
view
稳定@@
making
serious
action
mdash
超过@@
同样@@
euro
rising
h@@
day
infrastructure
challenges
left
行为@@
al@@
create
know
根据@@
access
finance
奥巴马@@
才能@@
利率@@
可能会@@
生@@
创造@@
lower
International
ad@@
as@@
直接@@
过去@@
credit
4@@
significant
once
er@@
W@@
推动@@
leadership
second
与此同时
点@@
大量@@
巨大的@@
个人@@
I@@
制度@@
欧洲的@@
Bush
French
很@@
believe
Minister
levels
叙利亚@@
Of
my
j@@
per@@
together
160
non-@@
research
的话
下
影响
生产@@
克@@
president
更为@@
am@@
出现@@
美国
头@@
基本@@
Putin
century
British
人类@@
美联储@@
Party
ter@@
30
人民@@
measures
马@@
issue
心@@
结果@@
times
意味着@@
环境@@
令@@
program
simply
ke@@
early
community
5@@
over@@
公民@@
那@@
当前@@
8
turn
at@@
更多@@
加@@
做出@@
party
以来
政府的@@
increased
technology
手@@
administration
因@@
find
消费@@
长@@
si@@
Ukraine
相@@
如今@@
资金@@
并没有@@
dollar
缺乏@@
ab@@
面临@@
old
home
维持@@
实际@@
整个@@
always
ates
限制@@
true
和平@@
达到@@
承诺@@
poverty
援助@@
冲突@@
回@@
despite
li@@
三@@
参与@@
challenge
be@@
考虑@@
Russian
不可@@
非洲@@
针对@@
行@@
试图@@
家庭@@
更多的@@
石油@@
rules
employment
Britain
刺激@@
w@@
日益@@
9
什么@@
pay
UN
data
且@@
deal
面@@
协议@@
Some
挑战@@
间@@
外@@
hard
developed
成本@@
万@@
similar
parties
im@@
情况@@
的大@@
ch@@
海@@
关注@@
正如@@
run
rule
领导@@
破坏@@
相对@@
Re@@
decade
真正@@
across
seem
budget
called
量@@
挑战
ensure
权@@
information
tion
conditions
国
危机
threat
German
重要@@
结果
卡@@
资源@@
Pakistan
事@@
但在@@
systems
每年@@
address
担心@@
require
目标
巴基斯坦@@
He
short
伊斯兰@@
不仅@@
伊拉克@@
ways
同@@
6@@
法律@@
ent
Americans
支持
吗
需求@@
的一@@
term
it@@
西@@
威胁@@
success
co@@
ability
各@@
公众@@
-
said
城市@@
Council
学@@
lack
乌克兰@@
制定@@
ding
依然@@
经济学家@@
这样@@
关键@@
officials
风险
model
央行@@
fall
done
全世界@@
8@@
whose
Fed
half
Central
措施@@
政府
运动@@
曾@@
areas
groups
系统@@
打@@
firms
average
ti@@
ra@@
response
m
进入@@
美@@
不同@@
balance
至少@@
的问题
呢
经济
largest
7@@
贷款@@
十分@@
公@@
d
利益@@
欧元@@
ar
派@@
了一@@
exchange
监管@@
until
投资
sh@@
才@@
five
阿@@
move
deficit
避免@@
position
open
部分@@
hope
consequences
consumption
pressure
民众@@
assets
production
kan
taken
传统@@
opportunity
ally
leading
return
是在@@
or@@
难以@@
de
politicians
陷入@@
它的@@
的时候
weapons
men@@
advanced
rich
尔
banking
food
on@@
入@@
requires
自身@@
big
20@@
productivity
知道@@
several
young
start
的是
里
文@@
strategic
权力@@
数据@@
failed
占@@
大规模@@
体系@@
ant
Fund
军@@
campaign
首先
它们的@@
40
annual
问题的@@
朝鲜@@
作用
应对@@
或许@@
ations
Prime
water
pre@@
largely
effort
斯
form
走@@
side
15
rest
应@@
Today
effects
UK
u
Egypt
Asian
months
定@@
外交@@
一场@@
ri@@
投资者@@
l
care
focus
以来@@
Such
changes
全@@
ly
created
man
ac@@
perhaps
到了@@
Japanese
有效@@
anti-@@
act
欧洲央行@@
努力@@
阻止@@
中国
away
越来越@@
structural
cause
子@@
cooperation
J@@
普京@@
资产@@
水平@@
ECB
变得@@
部门@@
alone
influence
下降
le
面对@@
力
Islamic
除了@@
并非@@
violence
leader
relations
opposition
Many
老@@
纳@@
em@@
经济的@@
powerful
majority
beyond
地方@@
period
只能@@
debate
预算@@
main
Given
利益
巴勒斯坦@@
p
policymakers
作@@
提出@@
ro@@
应当@@
安@@
goods
en
massive
th@@
两个@@
相关@@
ous
至@@
健康@@
con@@
funds
也会@@
wealth
pro@@
voters
having
数@@
医疗@@
2010
化的@@
身@@
拒绝@@
削减@@
red
独立@@
aid
sp@@
programs
重大@@
促进@@
改革
流@@
gas
表明@@
line
因素
necessary
full
科学@@
也不@@
中东@@
今年@@
事件@@
she
seen
top
尼@@
benefit
时间@@
儿童@@
lost
close
看@@
expected
Italy
但这@@
现代@@
think
prevent
capacity
increasing
工作
pen@@
al-@@
再次@@
group
play
点
sure
pe@@
n
found
official
关系
tions
有可能@@
bring
failure
Afghanistan
9@@
decline
市场
允许@@
革命@@
很多@@
makes
solution
基于@@
lives
理解@@
领域@@
率@@
began
形成@@
私人@@
elections
emissions
r@@
委员会@@
埃及@@
发现@@
Nations
untuk
约@@
有所@@
25
感到@@
media
制@@
行动
Brazil
single
内部@@
税@@
Instead
idea
akan
particular
ap@@
金@@
最大的@@
的全球@@
代表@@
supply
exports
four
V@@
land
相信@@
方面的@@
bad
lo@@
la@@
将在@@
doing
宣布@@
modern
later
owing
z@@
ini
shift
working
recovery
项目@@
的政策@@
governance
规模@@
job
economists
taking
look
First
迅速@@
通胀@@
industry
give
往往@@
decision
之一
商业@@
穆斯林@@
became
negotiations
气候变化@@
动@@
nearly
国的@@
表现@@
用于@@
曾经@@
fear
巴@@
bonds
ans
using
sustainable
只要@@
keep
税收@@
取得@@
短期@@
格@@
交易@@
四@@
联盟@@
并不是@@
civil
achieve
保证@@
se
comes
选民@@
either
水平
1@@
natural
allow
plan
Palestinian
两国@@
这意味着@@
极@@
taxes
通常@@
不再@@
措施
方@@
外国@@
宗教@@
预测@@
GDP@@
经济增长@@
inequality
成员国@@
total
支出@@
something
union
女性@@
阿拉伯@@
认为
意@@
contrast
nothing
显然@@
鼓励@@
mis@@
进@@
公开@@
总理@@
experience
党@@
globalization
创新@@
Commission
生活@@
多数@@
扩大@@
会议@@
的不@@
hold
过度@@
活动@@
度@@
期@@
汇率@@
竞争@@
维@@
effect
really
合@@
me@@
environment
month
living
things
improve
购买@@
积极@@
意大利@@
寻求@@
innovation
held
More
而言
每@@
达@@
powers
authorities
协议
伊@@
更大的@@
Now
表明
huge
self-@@
Muslim
presidential
situation
ded
发展中国家@@
政策的@@
coming
战@@
之后
官员@@
建设@@
legal
men
probably
威胁
了一个@@
前
60
highly
外部@@
C
All
十@@
Kingdom
价值@@
indeed
共和党@@
来
st
先@@
机构
0
ter
力量@@
此@@
ity
机会
ne@@
的主要@@
po@@
政权@@
正是@@
late
的国家
evidence
IMF@@
ul@@
承认@@
明@@
recession
真正的@@
agenda
文化@@
cases
State
Saudi
因素@@
values
vote
来说@@
能力@@
live
step
integration
合作
追求@@
和
下降@@
想要@@
avoid
网络@@
投票@@
took
相当@@
popular
平均@@
现实@@
kind
collapse
worse
18@@
那样@@
而在@@
reach
后的@@
美国人@@
大
工业@@
successful
report
主@@
matter
道德@@
变@@
去年@@
结束@@
Soviet
news
trillion
rapid
fundamental
Security
known
大多数@@
behind
病@@
太@@
不管@@
调整@@
following
处于@@
主义
亿美元
bo@@
National
build
traditional
州@@
讨论@@
商@@
opportunities
依赖@@
另一个@@
议会@@
reality
暴力@@
赢得@@
ine
Development
储蓄@@
limited
一位@@
地区的@@
推@@
放@@
Congress
fully
deficits
指出
钱@@
status
逐渐@@
干预@@
也在@@
environmental
is@@
成本
根本@@
模式@@
该国@@
增加
call
的社会@@
larger
地
investments
信息@@
corruption
恢复@@
较@@
条@@
愿意@@
goal
wrong
找到@@
承担@@
am
大学@@
数量@@
墨西哥@@
重要的@@
actually
变化@@
论@@
大约@@
也有@@
individual
protect
outcome
building
ks
就业@@
方面
权
boost
当时@@
任@@
account
快速@@
明确@@
relatively
处@@
Latin
era
线@@
空@@
组织
加强@@
words
third
NEW
教@@
在于@@
ir@@
全球经济@@
es@@
对此@@
confidence
遏制@@
见@@
观点@@
解释@@
vi@@
不可能@@
king
难民@@
ic@@
easy
加入@@
几@@
都会@@
机制@@
attention
贫困@@
欧洲
According
minister
报告@@
繁荣@@
变化
方式@@
hand
不同
under@@
inter@@
defense
视为@@
thing
坚持@@
年
t-@@
established
气候@@
位@@
结构@@
Global
2009
ag@@
quickly
也没有@@
2015
一样@@
mo@@
失业@@
U@@
治理@@
服务@@
罗@@
ties
开发@@
融资@@
极端@@
concerns
cut
今天@@
农业@@
competition
religious
standards
me
Y@@
ling
soon
produce
工人@@
力量
results
布@@
％
nbsp
如此
came
2012
mean
reducing
仅仅@@
include
这场@@
冲突
债务
Spain
Greek
ds
据@@
大幅@@
潜在@@
responsibility
毕竟
behavior
防止@@
处理@@
so-called
freedom
direct
als
基础设施@@
地区
哈@@
certainly
机会@@
critical
次@@
自然@@
decisions
爆发@@
难@@
电@@
19@@
巴西@@
联盟
核心@@
军队@@
unlikely
确实@@
全面@@
东@@
媒体@@
ak@@
业@@
ten
决策者@@
weak
基@@
movement
Since
发达国家@@
financing
days
标准@@
Europeans
同意@@
ang
2011
为什么@@
能力
out@@
越@@
当局@@
并未@@
understand
失@@
200@@
Mexico
远@@
il@@
的情况下@@
发展
首@@
联合@@
Barack
attacks
Z@@
roughly
NATO
物@@
有些@@
区@@
Most
达成@@
Great
看到@@
执行@@
其实@@
在
热@@
风@@
通@@
收@@
的问题@@
reserves
证明@@
欧盟的@@
开放@@
creating
制造@@
becoming
强调@@
el@@
规则@@
强@@
th
科@@
未@@
intervention
气@@
ha@@
上升
战争
工资@@
死@@
par@@
是一@@
事
pa@@
就像@@
cities
产品@@
stop
体@@
交@@
ism
external
程度@@
评估@@
特别@@
有着@@
Although
感@@
caused
既@@
along
稳定
above
机@@
commitment
提供了@@
cuts
的政府@@
general
industrial
elsewhere
worldwide
最后
亚@@
har@@
有关@@
使得@@
show
currently
austerity
meeting
us@@
he@@
qu@@
称@@
也将@@
市场的@@
不但@@
offer
1990
表示@@
布什@@
决策@@
满足@@
relationship
领袖@@
南@@
dari
国际社会@@
赤字@@
式@@
各种@@
meet
政党@@
转@@
No
五@@
很难@@
2013
进口@@
俄国@@
联邦@@
develop
阿富汗@@
状况@@
准备@@
而非@@
的欧洲@@
reasons
te@@
宪法@@
g
let
引发@@
Monetary
70
ah
有助于@@
预期@@
月@@
深@@
银行
全球化@@
瓦@@
clearly
beginning
Economic
完成@@
调查@@
meng@@
一项@@
强大的@@
bu@@
北约@@
dangerous
Israeli
债券@@
entire
选择
方案@@
行业@@
won
т@@
是因为@@
refugees
certain
Internet
h
除@@
path
光@@
100
道@@
fight
corporate
company
ru@@
products
放弃@@
11
ent@@
management
官方@@
谁@@
everyone
continued
的国际@@
relative
op@@
损失@@
asset
African
然而
no@@
确定@@
ur@@
原@@
thereby
claim
performance
alternative
言@@
technologies
经济体@@
su@@
accept
projects
amount
火@@
知@@
民族@@
成员@@
scale
原因@@
basic
了解@@
德
brought
将是@@
stimulus
失业率@@
output
代@@
韩国@@
Second
target
行为
10@@
insurance
e-@@
recognize
提@@
D
negative
值得@@
,000
to@@
ke
充分@@
迫使@@
特
outside
source
complex
型@@
打击@@
generation
choice
数字@@
承诺
according
millions
maintain
安全
basis
而这@@
花@@
om@@
失去@@
independence
类似的@@
2014
allowed
below
尤其是@@
ings
则是@@
Meanwhile
平@@
实@@
美国和@@
选@@
te
ev@@
模式
无论@@
moral
最后@@
总是@@
衰退@@
essential
地位@@
raise
science
相互@@
P
…
ors
crises
15@@
有人@@
ic
国会@@
人和@@
成功
一次@@
但却@@
80
其他国家@@
但如果@@
可以在@@
creation
萨@@
existing
forced
helped
压力@@
organizations
consider
sanctions
的一个@@
压力
增长的@@
positive
部@@
便@@
袭击@@
stock
death
victory
消费者@@
常常@@
金融危机@@
45
economics
支付@@
liberal
从未@@
ence
factors
我们必须@@
下的@@
都在@@
发生
情@@
ies
波@@
除非@@
落@@
September
工@@
服务
dengan
allies
负@@
这类@@
时代@@
deep
第@@
2007
夫@@
revolution
proposed
carbon
required
之后@@
independent
answer
制度
II
re-@@
provided
mem@@
在过去@@
种@@
批评@@
严重的@@
一旦@@
条件@@
framework
family
腐败@@
do@@
points
available
本身@@
Unfortunately
savings
class
continues
的美国@@
thinking
ves
依靠@@
指@@
口@@
第一@@
additional
危险@@
亿@@
类似@@
的方式@@
der
Federal
.@@
air
12@@
Indian
с@@
personal
即便@@
ary
机制
simple
terrorism
In@@
agreed
ren@@
责任@@
businesses
try
ex@@
leave
多
就能@@
之前
individuals
elected
How
gains
直到@@
妇女@@
instead
专家@@
disease
我的@@
的情况下
don
short-term
方法@@
Arabia
之前@@
后果
Finally
argue
手段@@
路@@
国民@@
attack
rapidly
财富@@
紧缩@@
教育
为何@@
ali@@
责任
迪@@
这一点@@
苏联@@
视@@
之中
考虑到@@
tic
某种@@
人民币@@
认识到@@
来的@@
societies
平衡@@
吸引@@
还要@@
建议@@
复杂@@
在美国@@
sc@@
信@@
service
12
eventually
incentives
门@@
生物@@
解@@
Hamas
prosperity
美元
出了@@
基金@@
民主党@@
households
appears
普@@
saving
当地@@
碳@@
ve
然@@
米@@
Con@@
thought
knowledge
要么@@
funding
期间@@
项@@
卫生@@
concern
turned
net
改变
类@@
的反@@
好处
减@@
经常@@
需求
看
这项@@
的影响
车@@
货币政策@@
公司
quality
开始
competitive
真实@@
aimed
increases
日
grow
related
也可以@@
取决于@@
effectively
调@@
Despite
claims
正式@@
区域@@
失败@@
Republican
的高@@
白@@
可持续@@
寻找@@
局@@
统一@@
damage
post-@@
力的@@
在其@@
图@@
毫无@@
高
tidak
ance
福利@@
Ex@@
vision
人权@@
强化@@
regulation
loans
在一@@
分析@@
子
信用@@
nor
为
劳动力@@
好
impossible
富@@
GDP的@@
stable
office
overall
彻底@@
扩张@@
reduced
ec@@
facing
清@@
项目
亲@@
品@@
ahead
Likewise
willing
家
现在
ol@@
离@@
gain
technological
更好的@@
十年@@
flows
呼吁@@
project
An
停止@@
talks
对其@@
questions
city
internal
统治@@
得以@@
wages
sides
执政@@
ons
2008年@@
自我@@
地位
带来的@@
和经济@@
reduction
现@@
equity
现有@@
export
protection
世界
治疗@@
An@@
巨大@@
b
这一点
费@@
奥@@
matters
体系
whole
advantage
culture
性和@@
George
反应@@
本国@@
最为@@
Clinton
率
obvious
widely
borders
activities
西班牙@@
reached
diplomatic
进步@@
ge@@
不幸的是
authority
ists
英@@
test
politically
尽@@
危机的@@
半@@
institutional
ch
losses
fail
法
res
接@@
经济学@@
driven
loss
跟@@
劳动@@
遭到@@
providing
crucial
旨在@@
而且
solutions
然而@@
原因
被迫@@
禁止@@
area
底@@
followed
今天的@@
forward
gap
这样做@@
问题上@@
liquidity
min@@
Palestinians
ses
expect
transition
ideas
stronger
听@@
up@@
S
asi
dollars
活动
市@@
neighbors
符合@@
获得了@@
常@@
具体@@
级@@
housing
significantly
时期@@
的人
克
paid
发自@@
主义的@@
car@@
金融市场@@
美国在@@
moment
切@@
directly
terrorist
设计@@
年的@@
nature
events
古@@
带@@
bar@@
初@@
报@@
造成了@@
steps
学生@@
主权@@
上升@@
波兰@@
trust
John
补贴@@
tive
ked
seemed
团结@@
shared
一切@@
实现
实际上
throughout
industries
ment
consensus
gra@@
产业@@
银行的@@
声@@
sectors
ultimately
照@@
唯一@@
让我们@@
传@@
兰@@
增@@
索@@
ving
领@@
多边@@
党
技术
思想@@
rec@@
同样的@@
school
亿美元@@
follow
出的@@
引起@@
ously
establish
seeking
场@@
seek
YORK
类似地
six
二@@
作用@@
第二@@
Pro@@
广泛@@
该地区@@
federal
Reserve
过程@@
分裂@@
tu@@
这些国家@@
的情况@@
а@@
哈马斯@@
知识@@
列@@
burden
尤其@@
取@@
损失
疾病@@
也就是@@
consumers
respect
parts
id
带来了@@
表@@
cultural
From
goals
我们需要@@
easily
Islam
lies
previous
当然@@
框架@@
regions
contrary
大大@@
预计@@
竞选@@
ground
写@@
集团@@
Lebanon
职@@
缺少@@
partners
条件
People
实际上@@
Though
和政治@@
基因@@
extreme
不同的@@
feel
argued
suggests
而不@@
眼@@
总体@@
等
sub@@
度
2010年@@
Similarly
原则@@
difference
communities
Brexit
社会
规则
比例@@
势力@@
领域
responsible
Trade
有时@@
额@@
R
显示@@
超@@
slow
begin
新闻@@
复苏@@
理@@
生产率@@
Only
世@@
领土@@
Per@@
core
收入
study
双方@@
那么
旧@@
Syrian
sometimes
lending
trying
援助
行
wants
买@@
expansion
pada
90
出现了@@
推进@@
your
des
六@@
净@@
chance
价@@
serve
条约@@
一直在@@
agreements
ou@@
互联网@@
政客@@
直@@
量
De@@
30@@
nya
所带来的@@
大的@@
系统
prime
Thus
增加了@@
game
面
2005
dalam
种族@@
提振@@
企业
y-@@
所有这些@@
北@@
方案
黑@@
－
sing
女@@
事实@@
50@@
size
ta@@
许多人@@
基础@@
民族主义@@
动荡@@
legitimacy
经@@
支出
actions
采用@@
主义者@@
17@@
historical
进程@@
ering
美国总统@@
几个@@
skills
派
committed
界@@
都有@@
scientific
的最@@
direction
情绪@@
有效的@@
世界的@@
面临着@@
focused
record
投@@
收益@@
save
pu@@
后果@@
manufacturing
所谓的
利润@@
Not
足够@@
有利于@@
否则@@
存在
存@@
қ@@
changed
ho@@
重要
um
takes
falling
going
warming
商品@@
的金融@@
Why
surplus
共@@
plans
bilateral
成立@@
primary
agree
持有@@
另一@@
strengthen
体制@@
2000
摆脱@@
不得不@@
错误@@
得到了@@
靠@@
pursue
ative
property
高达@@
creditors
最高@@
excessive
renminbi
算@@
经验@@
compared
anything
wage
立法@@
produced
这次@@
错误
主席@@
sovereign
微@@
shows
efficient
普遍@@
民@@
treatment
导致了@@
手段
雷@@
少@@
产@@
understanding
问@@
的对@@
普通@@
投入@@
argument
的增长@@
November
即将@@
资金
sts
d-@@
拉
观点
assistance
extent
substantial
mon@@
for@@
tri@@
ty
E
自身的@@
neither
战略
转型@@
担任@@
wars
high-@@
资源
克林顿@@
secure
塔@@
competitiveness
那就是@@
精英@@
司法@@
节@@
武器@@
ble
状况
山@@
步@@
bi@@
随后@@
11@@
皮@@
ing@@
importance
千@@
vital
ge
容易@@
win
ging
公平@@
ness
保@@
永远@@
精神@@
partly
ingly
人员@@
在未来@@
别@@
principle
prospects
之外
faces
summit
就必须@@
vulnerable
真@@
ang@@
怀疑@@
promote
gu@@
效@@
subsidies
更有@@
提升@@
理论@@
纽约
merely
,000@@
demands
的财政@@
fe@@
目的@@
encourage
中心@@
要求
员@@
r
特别是在@@
T
son
ay@@
mar@@
连@@
削弱@@
here
神@@
倒@@
消除@@
环境
人士@@
绝@@
consumer
December
政@@
sources
2001
Le@@
reflects
武装@@
最近的@@
协调@@
story
border
值@@
没@@
优势
si
一致@@
致力于@@
lu@@
生命@@
Ch@@
外交政策@@
发动@@
vast
managed
1980
immediate
曼@@
进步
drug
保险@@
war@@
worth
expectations
regulatory
becomes
均@@
公司的@@
成功的@@
总统
targets
欧洲人@@
正确@@
联系@@
零@@
前的@@
students
provides
Al@@
sions
捍卫@@
食品@@
国际货币基金组织@@
mass
努力
是对@@
faster
所有的@@
起来
so@@
成了@@
coalition
举@@
ya
option
在这个@@
implement
拯救@@
normal
Its
者和@@
群体@@
集体@@
safe
head
Me@@
au@@
s-@@
lose
space
黎巴嫩@@
留@@
合理@@
ful
和社会@@
繁荣
供应@@
went
whom
将其@@
limits
trend
联@@
der@@
权力
退@@
不应该@@
林@@
属于@@
Treaty
当今@@
Iranian
adopted
finally
优@@
实行@@
还没有@@
是不@@
储备@@
Paris
push
崩溃@@
uncertainty
书@@
man@@
models
关@@
周@@
€
May
快@@
发表@@
未能@@
spread
密@@
membership
转向@@
therefore
invest
运动
doubt
theory
比较@@
价值
位
book
可以通过@@
rely
接近@@
俄罗斯
威@@
м@@
并在@@
trading
德国
显著@@
severe
激励@@
核武器@@
排放@@
el
早@@
负责@@
在一个@@
都不@@
else
制裁@@
ized
不到@@
calls
后者@@
土地@@
earlier
失败
是一种@@
built
various
暴@@
appear
tend
197@@
精@@
middle
id@@
199@@
经历@@
勒@@
z
His
у@@
指责@@
an-@@
alized
反对派@@
爱@@
的那样
Libya
body
诺@@
民粹主义@@
enable
真的@@
ati@@
Korean
民主
假@@
仅@@
announced
抗@@
沙特@@
代价@@
principles
Abe
引@@
abroad
生存@@
2015年@@
委员会
started
achieved
Secretary
productive
阿根廷@@
目前
reflect
华@@
边境@@
有一个@@
其次
special
汽车@@
York
drugs
同样
权利@@
会
他在@@
Mo@@
latest
但它@@
н@@
鉴于@@
ve@@
工具
range
shown
政府和@@
按照@@
training
衰退
灾难@@
press
Poland
buy
贬值@@
长
General
致@@
ably
未来
respond
giving
莫@@
gen@@
人都@@
新兴市场@@
2009年@@
这将@@
立@@
changing
happen
referendum
因为它@@
police
near
众多@@
2006
目前的@@
thousands
趋势@@
更高的@@
俄罗斯的@@
198@@
ma@@
supported
走向@@
we@@
specific
accounts
就可以@@
lebih
标准
岛@@
House
Perhaps
biggest
我们可以@@
child
the@@
峰会@@
safety
truth
政治
fighting
gi@@
unable
往@@
manage
favor
ia
standard
要想@@
邻国@@
利率
三个@@
res@@
center
所以@@
suggest
16@@
himself
lines
实力@@
方式
某@@
原则
八@@
threats
ended
范围@@
重建@@
恐怖主义@@
出现
死亡@@
恐怖@@
running
策略@@
自由
macroeconomic
spend
的一部分
c
克服@@
zed
双@@
必要@@
明显@@
um@@
谈判
spent
welfare
195@@
五年@@
Gaza
未来的@@
独@@
关注
Consider
speech
学校@@
生活在@@
University
计@@
欧盟
独裁@@
100@@
了这一@@
ical
份@@
25@@
脱@@
贷款
动
一般@@
asked
London
多少@@
机
000@@
immigration
Last
的世界@@
库@@
fund
ste@@
addition
enormous
Both
巨额@@
工具@@
降@@
initiative
easing
崩溃
ver@@
incomes
才是@@
层@@
F
lot
commercial
控制
事务@@
mostly
基础
ph@@
消@@
fi@@
boom
税
适应@@
G-20
mer@@
首先@@
天然气@@
给予@@
a-@@
week
解决
promise
widespread
candidates
改革的@@
met
os
differences
排@@
弱@@
precisely
tahun
DC
places
组织的@@
盟友@@
角色
ins
合法@@
期
末@@
诸多@@
raising
causes
Their
laws
什叶派@@
profits
印度
远远@@
views
ones
希望
身份@@
对美国@@
监督@@
possibility
的重要@@
对抗@@
Because
遭受@@
立场@@
吉@@
决定
resulting
capita
集中@@
速度@@
14@@
异@@
happened
不平等@@
竞争
困难@@
看起来@@
deliver
circumstances
众@@
June
发挥@@
Muslims
用
considered
不过@@
尽管如此
得多
会在@@
fa@@
sovereignty
LONDON
ad
能否@@
fuel
designed
pro-@@
代价
语@@
justice
是个@@
回到@@
prove
治@@
运@@
居@@
候选人@@
Cold
民主的@@
可能是@@
洛@@
tools
争论@@
absence
launched
tried
hit
presidency
fell
困难
坏@@
世界银行@@
流动性@@
退出@@
社区@@
Xi
崛起@@
Argentina
七@@
due
regard
army
日本的@@
起到@@
ak
沙@@
信贷@@
胜@@
举行@@
利比亚@@
opinion
效率@@
求@@
ju@@
activity
药物@@
schools
context
然后@@
ning
sa@@
到
增长率@@
Financial
的时间@@
攻击@@
household
单@@
所需要的@@
currencies
情况
感
structure
active
leaving
base
end@@
Democratic
limit
倍
罪@@
意识到@@
效果@@
improved
托@@
例如@@
钱
持@@
促使@@
Eastern
room
满@@
Donald
集@@
received
团体@@
list
treaty
é@@
断@@
remained
的影响@@
的目标
estimated
但这一@@
增强@@
通货膨胀@@
urban
部长@@
全国@@
Organization
与其@@
considerable
全部@@
message
中国和@@
x
表现出@@
Se@@
资产
前景@@
批准@@
struggle
stand
也无法@@
少数@@
逊尼派@@
稳定的@@
construction
粮食@@
ratio
well-@@
economist
usually
operations
足以@@
若@@
在美国
相当于@@
的能力
者们@@
current-account
体
访问@@
正常@@
第三@@
bankers
反映了@@
closer
对
permanent
年轻人@@
极为@@
当选@@
193@@
左翼@@
borrowing
diseases
激进@@
fo@@
左右
看来
promises
低于@@
efficiency
住@@
头
进行了@@
支@@
worked
forms
instability
在欧洲@@
简单@@
血@@
revenues
规定@@
fair
贝@@
岁@@
有的@@
radical
按@@
cor@@
中央银行@@
两大@@
最新@@
奇@@
亿美元的@@
wi@@
anyone
计划的@@
ged
伦敦
有一@@
学习@@
Republicans
hi@@
13@@
替代@@
障碍
attempt
table
multilateral
生活
报告
Ar@@
欧@@
于
intelligence
伦@@
drive
演@@
returns
充满@@
generally
associated
冲击@@
subject
农民@@
During
期间
时间
everything
person
同时也@@
在全球@@
解决方案@@
油@@
equal
families
局势@@
破产@@
present
ut@@
事实上@@
建@@
declared
17
下跌@@
战
话
态度@@
梅@@
unless
commodity
Com@@
方
飞@@
过于@@
也是如此
Those
goes
的民主@@
told
例如
default
开支@@
helping
democracies
sion
分配@@
刚刚@@
danger
其它@@
cash
今天
п@@
地球@@
stage
大选@@
低
森@@
早期@@
但我们@@
优势@@
ethnic
一定@@
大型@@
恶@@
2011年@@
Al
当前的@@
孩子@@
变得更加@@
ms
工程@@
圣@@
取代@@
早已@@
recognized
结构性@@
deeply
2004
faced
供给@@
指数@@
final
migration
股票@@
变革@@
controls
队@@
imports
不愿@@
绝对@@
天
Merkel
conflicts
broader
遭遇@@
Mar@@
回报@@
之所以@@
股市@@
信心@@
196@@
复@@
involved
办法@@
payments
很可能@@
边@@
波动@@
ep@@
的长期@@
方法
现实
depends
smaller
主导@@
identity
干@@
factor
改@@
至关重要
朝@@
取消@@
inc@@
承受@@
什么
这是一个@@
entirely
unprecedented
价格
ters
状态
getting
形式@@
占领@@
troops
造成的@@
辩论@@
comprehensive
俄@@
Is
创@@
pre-@@
learn
局
的人口@@
armed
还会@@
少
name
物
tensions
emerged
目@@
sustained
amp
仍在@@
革命
Paul
collective
gone
士@@
ob@@
和美国@@
2013年@@
Washington
出于@@
broad
助@@
知道
人们的@@
肯定@@
light
世界上@@
世纪@@
worst
尚未@@
O
resistance
shed
ban@@
英国
et
ders
Over
禁@@
mainly
第一个@@
2012年@@
raised
revenue
nations
日本
capitalism
wide
hundreds
quite
killed
加速@@
farmers
农@@
怎样@@
观@@
populist
假设@@
伊斯兰教@@
allowing
constitution
highest
数
En@@
13
organization
防@@
agencies
ry
的时候@@
究竟@@
杰@@
suffering
官僚@@
分子@@
health-care
hands
明白@@
货币
candidate
就在@@
小
议@@
机构的@@
宣称@@
succeed
具备@@
task
rural
medical
dec@@
过
St@@
位于@@
程序@@
有了@@
救@@
weeks
的政策
的支持
想象@@
July
的结果
appropriate
借@@
ying
与美国@@
外
sound
continent
choose
和平
legislation
disaster
regulations
委内瑞拉@@
指出@@
权的@@
adjustment
Revolution
宏观经济@@
作出@@
犯罪@@
人在@@
单一@@
伊朗的@@
错@@
TPP
伦敦@@
road
wanted
本
质疑@@
outcomes
展开@@
区
sufficient
leverage
ization
supposed
理由@@
affected
的关键@@
选举
gold
维护@@
部门
ask
cancer
权利
副@@
electoral
upon
几个月@@
fallen
Another
让他们@@
轮@@
establishment
and@@
构建@@
紧急@@
ents
soft
moving
alization
强烈@@
资本主义@@
绿色@@
在这一@@
amp@@
事件
的前@@
各国政府@@
很快@@
60@@
generate
中所@@
viewed
复苏
ently
round
给了@@
几十年@@
18
伯@@
du@@
保护
decided
go@@
整体@@
端@@
Then
阻碍@@
个
2014年@@
tor
取得了@@
世界经济@@
nation
greatest
imposed
overcome
Court
根@@
一系列@@
les
势@@
zero
depend
0@@
安排@@
最大@@
air@@
犹太@@
相比
怀@@
这也是@@
参@@
党派@@
ensuring
部门的@@
ni@@
意义
右翼@@
Ireland
CAMBRIDGE
Ad@@
数据
southern
恶化
credibility
positions
票@@
heart
sought
所面临的@@
击@@
话@@
转变@@
ist
有
proved
但他们@@
局面@@
量的@@
高度@@
研究
技能@@
ending
色@@
恩@@
采取了@@
implies
提出了@@
油价@@
鲁@@
stands
practice
差异@@
还需要@@
铁@@
practices
hardly
何@@
特殊@@
ordinary
migrants
创新
500@@
ator
的研究@@
内
发现
rhetoric
福@@
slowdown
中产阶级@@
restore
January
sharply
毒@@
offered
scientists
所谓的@@
印度的@@
估计@@
债权人@@
是有@@
多年@@
diplomacy
构成@@
让人@@
谈@@
mind
percentage
played
一年@@
化和@@
印@@
警@@
的机会
debts
mid-@@
deaths
中国经济@@
施@@
Di@@
预防@@
implemented
ongoing
proposal
手
退休@@
首次@@
ca@@
即使是@@
ce@@
利
成功地@@
登@@
加剧@@
姆@@
ators
priority
low-@@
百@@
join
苏@@
expand
participation
赛@@
爱尔兰@@
道
measure
如果我们@@
荷兰@@
experts
进展@@
达到了@@
尝试@@
性的
experienced
regimes
清楚@@
ze
起来@@
can@@
populations
协定@@
秩序@@
出
归@@
combined
wh@@
结@@
限制
条约
iting
足够的@@
violent
f
也不会@@
冲@@
形势@@
ps
劳@@
学
Kremlin
pace
被视为@@
undermine
平等@@
estimates
improving
receive
potentially
house
意义@@
backed
大国@@
afford
拜@@
Rather
告诉@@
ci@@
numbers
fast
德国的@@
科技@@
诚然
ai
supporters
共产主义@@
管@@
发生了@@
belief
deflation
Republic
不足@@
这就是@@
и@@
whatever
站@@
sw@@
危险
40@@
11月@@
变成@@
装@@
arms
conservative
平衡
contribute
和金融@@
universal
混乱@@
在经济@@
掉@@
break
境@@
otherwise
由此@@
专业@@
alliance
以色列的@@
差@@
Sea
之时
融资
inf@@
发布@@
continuing
事情@@
35
制造业@@
新兴经济体@@
•
九@@
transformation
geopolitical
agricultural
产生了@@
movements
analysis
要比@@
倍@@
б@@
aan
偏@@
conventional
defined
年轻@@
mu@@
resolution
负担@@
部分
aging
lesson
望@@
将继续@@
Islamist
第一次@@
贡献@@
杀@@
Third
员
宣传@@
问题是@@
suffer
包含@@
territory
收入的@@
贫困
includes
л@@
法庭@@
张@@
imbalances
互相@@
预@@
阶段@@
随@@
str@@
sed
scenario
重组@@
不要@@
Un@@
教训
negara
入侵@@
sign
bond
March
忽视@@
Our
尔的@@
sen@@
ruling
Sunni
历史上@@
美国经济@@
的军事@@
基础设施
barriers
每个@@
causing
implications
以上
options
distribution
人们对@@
194@@
最重要的@@
领导人
的风险@@
蒙@@
14
好的@@
conference
Ro@@
帕@@
实施
债@@
在此@@
constitutional
严重
压@@
表达@@
伤害@@
fears
ir
部队@@
疫苗@@
药@@
余@@
learned
strength
已经在@@
房@@
同时
双边@@
2003
莱@@
思维@@
Assad
easier
everywhere
talk
v
引入@@
quarter
amounts
警告@@
sharp
原因是@@
explain
担忧@@
还能@@
投资的@@
突然@@
visit
巨@@
type
犯@@
心理@@
cu@@
这样
protests
好处@@
intellectual
degree
cutting
价
W.
不管是@@
结束
抑制@@
缅甸@@
非法@@
Climate
towards
Without
过程
发生在@@
initiatives
advance
态度
immigrants
gave
Su@@
nationalism
陷入了@@
群@@
移@@
都将@@
ten@@
现象
反映@@
造@@
mechanisms
one-@@
不受@@
although
输@@
zing
以及其他@@
affairs
埃@@
命@@
inevitable
strategies
互@@
活@@
只会@@
holding
sel@@
她的@@
actors
专@@
趋势
企业的@@
立场
哥伦比亚@@
planet
prospect
台@@
危险的@@
发展的@@
效果
CO2
出来
证据@@
违约@@
效应
expensive
determined
号@@
к@@
个国家@@
质@@
Hong
签署@@
但其@@
back@@
reflected
容@@
regulators
化石燃料@@
时代
的原因
回归@@
胜利
combination
Communist
Democrats
巴黎@@
质量@@
enterprises
巩固@@
race
pl@@
中国政府@@
使其@@
但这些@@
她们@@
导@@
终于@@
夫
uses
强制@@
字@@
ages
ар@@
没有任何@@
works
消灭@@
产品
香港@@
去
巴勒斯坦人@@
ed@@
私人部门@@
prepared
意识形态@@
他们在@@
标@@
还在@@
逐步@@
日渐@@
冷战@@
oc@@
Sarkozy
观察@@
那里@@
限@@
海洋@@
aw@@
经过@@
以便@@
进程
款@@
齐@@
届@@
Just
各方@@
埃尔多安@@
医生@@
objectives
grown
研发@@
入
凯恩斯@@
产出@@
调整
aggregate
shing
cycle
跨国@@
居民@@
的主@@
都要@@
它
新兴@@
紧张@@
卖@@
patients
红@@
whereas
说服@@
driving
计算@@
塞@@
生
赫@@
沙特阿拉伯@@
born
ard
怎么@@
Kong
ces
controlled
记录@@
commitments
目标的@@
推行@@
parliament
looks
virtually
resolve
senior
决@@
广@@
场
线
coal
electricity
October
secular
9月@@
believed
digital
ited
的风险
状态@@
受到了@@
David
seriously
形@@
胡@@
发生的@@
而言@@
报道@@
班@@
tra@@
现金@@
都能@@
不足
一起@@
硬@@
王@@
第二个@@
水
没能@@
答案@@
poorest
solve
leads
兼@@
restructuring
电视@@
victims
1970
提高
案@@
losing
启动@@
ready
Kim
ill@@
sustain
credible
tan@@
bre@@
善@@
是由@@
о@@
promised
ster
显然
concerned
guarantee
alism
声称@@
Indonesia
impose
空间
参加@@
typically
掌握@@
dly
Will
改善
业
destruction
perspective
空间@@
language
中国在@@
immediately
甚@@
源@@
bound
ot@@
blame
declining
停@@
弹@@
tr@@
engage
av@@
阶段
tes
style
法国
养@@
发行@@
Taliban
bubble
可能
studies
occurred
奖@@
ы
16
中央@@
全球变暖@@
signed
个体@@
1,@@
¾
思考@@
抗议@@
long-@@
领导的@@
exit
legitimate
Ab@@
Jewish
affect
2016
所有人都@@
healthy
ig@@
Taiwan
国外@@
minority
necessarily
已经成为@@
peaceful
冲击
Vietnam
Co@@
转移@@
是为了@@
房地产@@
都没有@@
standing
green
physical
field
了对@@
inclusive
objective
力和@@
Australia
球@@
纽约@@
争@@
所造成的@@
世俗@@
defeat
薪@@
Nor
seven
figure
国有@@
fuels
支持的@@
ma
情绪
待@@
Sh@@
私@@
过渡@@
desire
任命@@
拉美@@
剧@@
authoritarian
也能@@
中心
发达经济体@@
孤立@@
bul@@
此次@@
dependent
sell
更大@@
关系的@@
liberalization
换句话说
dynamic
灾难
减少
也应该@@
developments
哪些@@
12月@@
ow@@
感觉@@
underlying
现象@@
opponents
情报@@
心
顿@@
Erdoğan
choices
基金
省@@
ш@@
heavily
paying
mission
的支持@@
资产负债表@@
拉丁美洲@@
职业@@
product
时期
弗@@
!
200
雅@@
博@@
方向@@
ens
accepted
maintaining
之上
地缘政治@@
е@@
脱离@@
est
aim
破坏
ili@@
置@@
elite
牛@@
美元的@@
Two
翻@@
carry
flow
truly
den@@
mereka
斗争@@
fueled
星@@
框架
释放@@
та@@
ner
任务@@
会议
ast@@
优先@@
英国的@@
han
excess
ministers
付出@@
alize
社会的@@
澳大利亚@@
拿@@
短@@
效应@@
ong
南非@@
ian
described
divided
elites
Bar@@
worry
税率@@
元@@
bringing
游@@
shape
素@@
served
unlike
Treasury
hopes
信任@@
公投@@
明
x@@
crimes
劳动力市场@@
足@@
re
严格@@
proposals
mechanism
temporary
喜欢@@
ory
股@@
值
这么@@
20世纪@@
安倍@@
weight
学家@@
用来@@
equivalent
networks
穆@@
塔利班@@
Venezuela
描述@@
付@@
儿@@
k-@@
的发展@@
抵制@@
增长和@@
能
这就@@
starting
约束@@
的最佳@@
查@@
500
离开@@
ASEAN
quantitative
记@@
争议@@
乱@@
两年@@
turning
的行为@@
relief
紧@@
lessons
offers
告@@
遵守@@
分歧@@
习近平@@
Turkish
片@@
尊重@@
解决方案
日程@@
setting
hours
corporations
perceived
麦@@
或是@@
升@@
牺牲@@
农村@@
崛起
仅仅是@@
dic@@
possibly
大多@@
推翻@@
监管
艾滋病@@
ade
安全的@@
mistake
实现了@@
院@@
我们应该@@
胜利@@
联系
所谓@@
为此@@
Parliament
领域的@@
纳入@@
保留@@
兴@@
动物@@
р
指标@@
欧盟委员会@@
常规@@
QE
represents
M
tersebut
opening
equally
playing
供@@
Ne@@
generations
驱动@@
一条@@
Shia
gar@@
promoting
换@@
Vladimir
ari@@
间
证@@
def@@
economically
70@@
However
资@@
occur
加以@@
式的@@
尼
严@@
网@@
Other
建立一个@@
投资于@@
expanding
trends
twentieth
settlement
cha@@
教育和@@
渴望@@
ality
偿还@@
bear
经营@@
格鲁吉亚@@
strengthening
边界@@
差距@@
relevant
agriculture
传播@@
通缩@@
pattern
players
refugee
在200@@
住房@@
协定
贬值
驻@@
的可能性@@
northern
几年@@
dapat
虚@@
decide
暂时@@
言论@@
做法@@
步
以前@@
顺@@
annually
制
deeper
已经开始@@
sur@@
前所未有的@@
keeping
nationalist
pe
kers
产量@@
summer
赞@@
Like
套@@
demonstrated
exist
土@@
也可能@@
失去了@@
urgent
台湾@@
法院@@
那样
也必须@@
front
息@@
supporting
进行
board
强大@@
乐观@@
起
超越@@
重点@@
useful
sharing
目标是@@
示威@@
ls
Car@@
古巴@@
determine
没有人@@
会导致@@
ал@@
因为他们@@
债券
批@@
acy
立刻@@
管制@@
religion
影响力@@
重塑@@
都必须@@
划@@
绝大多数@@
平民@@
ash@@
每天@@
是最@@
医学@@
sive
即使在@@
中期@@
品
对外@@
surprise
共识@@
exchange-rate
衡量@@
瑞典@@
指导@@
东盟@@
使用
竞争力@@
Growth
集中在@@
这样一个@@
knows
addressed
气候变化的@@
中有@@
的结果@@
technical
是美国@@
交通@@
acting
compromise
August
统计@@
firm
在这@@
不仅仅是@@
ns
在199@@
默@@
时代的@@
在内的@@
ven@@
只有在@@
例子
presence
科学家@@
team
主张@@
冷@@
路
dramatically
saw
ite
金融机构@@
discussion
figures
领袖
issued
抓住@@
中间@@
于是@@
近期@@
gained
ran@@
克里姆林宫@@
formal
court
思@@
销@@
长的@@
mor@@
股东@@
il
Here
过去的@@
Palestine
很少@@
也就@@
里的@@
WASHINGTON
止@@
Fortunately
测试@@
的公共@@
缓慢@@
Social
员工@@
负担
track
signs
意
April
时的@@
提出的@@
apparent
transparency
降低了@@
vo@@
ай@@
华盛顿@@
东亚@@
over-@@
配@@
进展
获@@
属@@
电子@@
20世纪90年代@@
none
parliamentary
保守@@
unsustainable
complete
协助@@
帝国@@
加沙@@
Under
robust
组成@@
政治家@@
Robert
引发了@@
乐@@
妥协@@
Depression
国家和@@
患者@@
自动@@
惊@@
巴西
extremely
组@@
surprising
terrorists
无疑@@
pri@@
dramatic
伊斯兰国@@
更不用说@@
这两个@@
fying
ats
确@@
trouble
贸易
自由贸易@@
需要
华盛顿
包容@@
期望@@
addressing
目的
friends
ill
event
Committee
战争的@@
解放@@
涉及@@
linked
层面@@
知
showed
tors
人口的@@
自由的@@
Health
published
准@@
东西@@
decision-making
竞争力
河@@
HIV
版@@
moderate
美国政府@@
高于@@
着
dy
requirements
终@@
pursuing
Or
ges
出售@@
&#93;
ically
件@@
Investment
操纵@@
债务的@@
&#91;
到的@@
IS@@
tly
保障@@
官@@
度的@@
却是@@
修@@
唯一的@@
unique
相比@@
kept
assume
Nobel
有能力@@
critics
道路
模型@@
w
幸运的是
某个@@
begun
looking
purpose
复杂
reported
说明@@
本地@@
流动@@
territorial
良好的@@
霍@@
实验@@
ung
tim@@
泡沫@@
observers
ned
eight
meant
ba@@
月
可能导致@@
存在的@@
废@@
经济体
B
enter
行动的@@
交易
bit
civilian
sm@@
赤字
represent
understood
ends
anti@@
contributed
逃@@
破@@
毫无疑问
tics
服@@
purchases
设@@
恐惧@@
genuine
chief
24
survival
急@@
共识
主义者
arrangements
管理
ta
22
词@@
tt@@
一名@@
权力的@@
顾@@
mandate
adopt
online
exactly
周期@@
Partnership
减轻@@
design
对中国@@
伊拉克的@@
poli@@
干预
用的@@
穷@@
扮演@@
技术的@@
不少@@
engagement
closely
0.@@
很多人@@
拖@@
万人@@
病毒@@
包@@
无力@@
Italian
institution
shocks
否认@@
af@@
scope
AR@@
争取@@
送@@
structures
Im@@
盛@@
ved
pension
道路@@
更大
升值@@
玛@@
任期@@
Chile
必要的@@
穷人@@
灵@@
布什政府@@
besar
humanitarian
willingness
establishing
Gulf
essentially
mat@@
lin@@
负债@@
criticism
全球化的@@
镇压@@
double
内的@@
capable
必@@
教训@@
定义@@
bisa
对手@@
败@@
constraints
规模
团@@
佩@@
一家@@
la
污染@@
stagnation
的一些@@
partner
才会@@
海外@@
脑@@
30年@@
7年@@
资助@@
阿萨德@@
opposite
消费
系统的@@
刻@@
Georgia
拿出@@
priorities
die
75
恶化@@
universities
经历了@@
encouraging
深刻@@
的银行@@
首相@@
裂@@
问题上
青年@@
角色@@
hu@@
动荡
mention
支持者@@
整@@
国防@@
moved
可靠@@
gradually
与其他@@
更高@@
intended
高级@@
的唯一@@
Act
欢迎@@
经济和@@
能在@@
bed
两位@@
billions
processes
via
收益
ching
uc@@
跌@@
变化的@@
情况下@@
工作的@@
信
一直是@@
201@@
placed
座@@
Institute
特朗普的@@
他们
ton
饱受@@
所需的@@
remarkable
7月@@
promising
happens
transfer
著名@@
吃@@
sti@@
现在的@@
此前@@
learning
兹@@
任务
OECD
预测
educated
harus
inadequate
邦@@
says
垄断@@
meaning
一份@@
uni@@
historic
achieving
进行的@@
dominated
2007年@@
tic@@
fewer
emerge
ist@@
д@@
其在@@
fl@@
pan@@
volatility
也门@@
疾病
ars
不需要@@
ды
目的是@@
cre@@
fire
希@@
部
轻@@
原本@@
武器
We@@
越来越多的@@
reasonable
gl@@
二十世纪@@
defend
launch
痛@@
grew
pped
黄金@@
host
recognition
alist
这个国家@@
专制@@
程度
5年@@
护@@
Netanyahu
votes
凯@@
那种@@
障碍@@
名义@@
灾@@
缺@@
！
语言@@
从事@@
法律
securities
症@@
weakness
enti@@
regardless
producing
样@@
其中的@@
尼日利亚@@
的事情
办法
也不能@@
艾@@
employees
imp@@
homes
关键
Gu@@
盈余@@
间的@@
remaining
城@@
残@@
脆弱@@
restrictions
纷纷@@
坐@@
船@@
正确的@@
纳粹@@
简言之
理
急剧@@
added
物价@@
迷@@
伊朗
信息
论
赶@@
pem@@
stance
2005年@@
行政@@
觉得@@
adequate
回报
paper
散@@
行的@@
surely
潮@@
integrated
targeted
solidarity
这些人@@
母@@
emergence
机器@@
lie
ser@@
ments
营@@
Defense
评论@@
内容@@
景@@
定的@@
Li@@
的方法@@
drop
sha@@
Iraqi
primarily
但他@@
邻@@
included
unity
borrow
数百万@@
ure
另外@@
象@@
百万@@
顾问@@
joint
investing
就连@@
ah@@
经济增长
损害@@
名
分别@@
welcome
信心
bio@@
med
girls
警察@@
planning
Once
合
二战@@
怪@@
煽动@@
Bo@@
秩序
posed
温@@
病
巨大
tests
alists
producers
这位@@
甚至是@@
季@@
的确@@
贫穷@@
bahwa
内塔尼亚胡@@
і@@
的投资@@
战斗@@
ce
izing
regarded
tor@@
免@@
以此@@
之
发电@@
Cameron
ined
各自@@
存款@@
决策
伙伴@@
约翰
万亿美元
上涨@@
回答@@
Canada
加上@@
尚@@
leg@@
也不是@@
转变
reserve
heavy
putting
crime
profound
法国的@@
主义和@@
reports
易@@
down@@
的中国@@
过程中@@
开展@@
惨@@
plants
stake
之下
dialogue
就业
相对较@@
将成为@@
斯特@@
放在@@
negara-negara
Until
risky
此外@@
还必须@@
2002
觉@@
的最新@@
借贷@@
ics
应该是@@
两者@@
主要是@@
缓解@@
情况下
incentive
激@@
introduced
欧洲和@@
ideological
Foreign
ambitious
shock
starters
educational
concept
on-@@
透明@@
exception
US-@@
Ra@@
suffered
守@@
rejected
相信
移民
gr@@
X@@
wrote
carried
ori@@
2030
折@@
eli@@
显示
默克尔@@
发展中国家的@@
pollution
bottom
tre@@
to-@@
在这些@@
两种@@
特定@@
0年代@@
sustainability
21
6月@@
battle
GDP增长@@
sent
贡献
陈@@
经验
族@@
很容易@@
重
yield
谋@@
审@@
距离@@
ship
必然@@
pressures
接受
沃@@
youth
不论@@
Governments
imagine
的历史@@
fate
沉@@
藏@@
段@@
能源
opposed
counter@@
矛盾@@
boosting
杠杆@@
流
温和@@
genetic
Mon@@
pushed
补贴
woman
series
打击
之路
叫@@
financed
看上去@@
mas@@
stri@@
对待@@
Nigeria
角度@@
更好地@@
practical
腐败
支撑@@
closed
如果你@@
costly
培训@@
reaching
性别@@
何种@@
笔@@
ur
implementation
金
苏格兰@@
仍然是@@
伊拉克
ring
承认
事实
蒂@@
举行的@@
撤@@
泛@@
留在@@
attractive
越南@@
建筑@@
compete
并将@@
Beijing
之一@@
Wall
希腊
word
terror
gender
England
实体@@
ize
认识@@
embrace
我们在@@
那个@@
adalah
died
注@@
量化宽松@@
相反@@
р@@
que
ear@@
ber
operating
gh@@
ы@@
另一方面
定
hor@@
pose
分歧
没有什么@@
centuries
mark
更具@@
aggressive
中国领导人@@
这个问题@@
8年@@
large-scale
下去
一下@@
300@@
的确
更多地@@
enabled
add
一些人@@
tough
以上@@
ham@@
多的@@
Th@@
德国和@@
Israelis
结论@@
反应
三年@@
反而@@
智利@@
someone
解释
20年@@
Chancellor
效率
冲突的@@
failing
不仅仅@@
内战@@
证券@@
1月@@
і
各个@@
现状@@
放松@@
主流@@
stay
ani
圣战@@
threatened
放缓
试@@
fac@@
策略
公正@@
规划@@
施加@@
集团
Yes
和对@@
丹@@
的改革@@
销售@@
建立在@@
innovative
注入@@
legacy
设立@@
AIDS
strongly
效
taxpayers
eliminate
一致
wave
ra
notably
一国@@
cheap
但它们@@
effectiveness
exposed
在世界@@
ched
予以@@
减税@@
健康
覆盖@@
谴责@@
相关的@@
repeatedly
modest
concluded
lic@@
恐怖分子@@
认真@@
害怕@@
ines
capabilities
暗@@
理念@@
谢@@
atau
az@@
dit@@
sea
charge
att@@
的观点@@
一点@@
至于@@
felt
contracts
为其@@
纳
欧元
Nonetheless
invasion
material
初
clean
Par@@
atory
Beyond
停滞@@
Hezbollah
财@@
两次@@
他
conducted
资本
accompanied
bailout
suggested
bill
通胀
emerging-market
年龄@@
认定@@
ut
mere
的最大@@
软@@
第三
欠@@
军方@@
能让@@
历史
cap@@
sales
到目前为止
款
harm
的作用
transactions
党的@@
speak
最近
国际货币基金组织
引导@@
private-sector
不了@@
identify
er-@@
profit
Jews
che@@
wider
廉价@@
disp@@
紧迫@@
ants
打破@@
之间
看似@@
killing
et@@
ai@@
undermining
得
大萧条@@
兵@@
毁@@
在中国@@
engaged
以至于@@
领导人的@@
史@@
痛苦@@
杜@@
服务业@@
survive
trans@@
他们所@@
Pre@@
ong@@
cover
transfers
ell@@
气
全球金融@@
com@@
每一个@@
obligations
calling
不足以@@
能力的@@
人数@@
ger
approaches
花费@@
appreciation
唐纳德
义@@
讨论
摧毁@@
CA@@
感染@@
理想@@
这样做
影响力
statement
下跌
结构
funded
latter
文化
iz@@
显得@@
选举中@@
successfully
finding
左右@@
亚洲
创造了@@
决心@@
暴力
ka
sentiment
pushing
逻辑@@
ming
2020
很大的@@
lan@@
隐@@
My
quo
ys
我在@@
Still
疲软@@
角@@
failures
depression
气候变化
father
holds
heads
transport
乔治
的货币@@
政府在@@
所有人@@
bubbles
bur@@
28
-year
以色列
Plan
ignore
Egyptian
最佳@@
+
equality
all@@
package
种
食@@
固@@
玩@@
不过
inv@@
细胞@@
称为
supplies
但对@@
condition
withdrawal
自从@@
潜力
突@@
的核心@@
快
Portugal
operate
ud@@
vers
uncertain
担忧
sting
业务@@
惩罚@@
证明
cer@@
库尔德@@
W
ace
faith
宽松@@
最好@@
bra@@
completely
主权债务@@
He@@
冰@@
February
适@@
时候@@
link
polls
在许多@@
eng@@
da
产生的@@
falls
误@@
菲@@
诚@@
pat@@
略@@
有效
财务@@
修正@@
封@@
bankruptcy
扎@@
disputes
专注于@@
Har@@
需要的@@
sort
Keynes
kita
更是@@
dunia
相对于@@
共产党@@
malaria
害@@
Pakistani
巴黎
尤@@
一个
失衡@@
的安全@@
强硬@@
的环境@@
浪费@@
在国际@@
previously
兑现@@
融入@@
法官@@
阵营@@
友@@
apply
协议的@@
比
男@@
tell
logic
得不到@@
复杂的@@
智@@
正义@@
的方式
released
关税@@
alike
的自由@@
卢@@
共和国@@
很有可能@@
书
Dis@@
导弹@@
~
苦@@
群众@@
礼@@
些@@
负责
青@@
北京@@
克里@@
沦为@@
抵消@@
合理的@@
代
Russians
IC@@
accounting
buying
发达@@
protecting
南部@@
ina
至今@@
城市
elements
weaker
犹太人@@
ban
claimed
而这些@@
会的@@
死亡
humanity
测@@
概念@@
投机@@
Singapore
Ac@@
燃料@@
的地@@
emergency
explanation
看来@@
zone
viable
依@@
了其@@
学术@@
其他人@@
大陆@@
seemingly
hal@@
小的@@
读@@
建议
enhance
动员@@
干涉@@
ada
decisive
出现在@@
‘
期待@@
流向@@
跨@@
绝非@@
监管者@@
例
budgets
EC@@
共享@@
confront
法案@@
voting
适用于@@
sted
els
诊断@@
功能@@
永久@@
对欧洲@@
马上@@
Furthermore
oleh
来看
的地方
got
sm
ye@@
in-@@
对话@@
还将@@
allows
sho@@
rac@@
ver
还不@@
Sweden
男性@@
的原因@@
完美@@
庞大的@@
预期
slowly
疑@@
斗争
执@@
的市场@@
建立了@@
negotiate
occupation
不满@@
trial
投资和@@
升级@@
humans
rose
谨慎@@
有多@@
contain
良好@@
占据@@
ker
search
substantially
木@@
negotiating
前任@@
做
Colombia
ess@@
preventing
所谓
印尼@@
刑@@
Jordan
火
判@@
校@@
atan
物质@@
state-owned
managers
肉@@
观念@@
故事@@
特征
合法性
earnings
现任@@
Qu@@
艰难@@
debt-@@
的所有@@
二十年@@
Sch@@
的小@@
幕@@
在很大程度上@@
富裕@@
fragile
强劲@@
Countries
民主国家@@
制裁
aware
后来@@
采@@
再一次@@
举措@@
极其@@
紧密@@
mi@@
帮助
mutual
helps
generated
barely
turmoil
我们所@@
super@@
做出了@@
森林@@
特征@@
Christian
creates
制度的@@
valuable
认@@
ach@@
口
请@@
和国际@@
密切@@
发起@@
变成了@@
users
没人@@
的战略@@
parents
saying
ideology
行为的@@
而已
影@@
6年@@
足球@@
char@@
N
arguments
coordination
flexibility
convinced
国家都@@
version
吸收@@
wind
人民的@@
threatening
ot
商
大众@@
赢得了@@
Tunisia
declined
é
Bu@@
daily
art
two-@@
还可以@@
复兴@@
强
客户@@
准确@@
Human
gives
我们对@@
隔@@
宏观@@
欧元的@@
з@@
此类@@
所在@@
泰国@@
network
良@@
伤害
享受@@
背@@
例@@
画@@
运作@@
乌@@
剂@@
bor@@
记者@@
探@@
为例
奥巴马政府@@
预算赤字@@
off@@
公布@@
彼此@@
shareholders
康@@
扭曲@@
newly
缺陷
bagi
resource
利益的@@
cra@@
见
体现@@
土耳其
毫不@@
困境
的事@@
最低@@
anger
操作@@
明年@@
23
幅@@
明智@@
Street
负面@@
treated
极大的@@
的年@@
sely
日的@@
降低
cur@@
multi-@@
有关
Policy
依赖于@@
立即@@
价值观@@
Supreme
escape
replace
strike
ruled
surpluses
讲@@
存在着@@
深度@@
baru
的方法
仍是@@
5月@@
nowadays
organized
和政府@@
ik@@
surge
水平的@@
诱@@
借款@@
Nevertheless
norms
盘@@
angan
soldiers
ire
Rights
juga
的目标@@
精神
1960
秘密@@
Peace
很有@@
奥巴马的@@
高的@@
acts
所以
criminal
接触@@
破坏了@@
人物@@
师@@
professional
次
dra@@
2年@@
伤@@
Inter@@
ap
就将@@
点是@@
Nor@@
晚@@
television
财政部长@@
offset
工会@@
安理会@@
aries
但也@@
落
10月@@
st-@@
在这方面
面临的@@
大概@@
corrupt
生命
例子@@
自己
Yemen
零售@@
不应@@
fixed
东西
控@@
成员国
For@@
date
balanced
inflows
不太@@
sk@@
19
ideal
言
独立的@@
correct
已成为@@
生的@@
pol@@
平台@@
录@@
expense
消失
顶@@
来源@@
召开@@
exercise
ala
的观点
realize
哪@@
initial
badly
幸@@
painful
万
inevitably
ish
因为它们@@
enabling
delivered
ss@@
困境@@
部署@@
首要@@
扩张
bat@@
综合@@
卡梅伦@@
之外@@
无可@@
int@@
itu
Ke@@
淡@@
zation
游说@@
语
企业家@@
coup
joined
征@@
比率@@
actual
严肃@@
bold
果@@
体系的@@
communist
attract
conclusion
engineering
ple@@
returned
appeal
pressing
contributions
放缓@@
20世纪80年代@@
nominal
兰
reliable
ethical
加拿大@@
超级@@
periphery
dominant
房价@@
被认为@@
attempts
contribution
约旦@@
世纪
开放
sheets
地说
电脑@@
势
便是@@
矿@@
resulted
具@@
Blair
苏丹@@
是否会@@
instruments
Energy
doesn
季度@@
从来@@
成就@@
warning
publicly
充@@
27
石@@
ownership
Pacific
ths
与此@@
де@@
菲律宾@@
浮@@
ung@@
consistent
kem@@
Can
致命@@
consolidation
knew
加大@@
储@@
Spring
坚@@
co-@@
也需要@@
民众的@@
expressed
24@@
ath
获取@@
Justice
首脑@@
风险的@@
Senate
不平等性@@
的贸易@@
临时@@
至少在@@
可再生能源@@
运用@@
因为这@@
Mubarak
而对@@
转型
欧洲国家@@
器@@
的人民@@
美
transparent
疟疾@@
远
泰@@
害
局面
的最后@@
形式的@@
赋予@@
300
ff@@
抛@@
宾@@
格
印度和@@
pping
advances
Kosovo
unions
货币联盟@@
下降到@@
有限@@
条款@@
词
的一种@@
上了@@
5-@@
mistakes
广泛的@@
总统的@@
gets
的经济增长@@
voted
Or@@
判断@@
网络
Sa@@
都被@@
ama
主宰@@
wake
额外@@
rescue
有利@@
emp@@
一代@@
kon@@
横@@
陆@@
基本上@@
的威胁
flexible
Qaeda
examples
1989
欧盟成员国@@
cross-border
持久@@
reverse
marked
社@@
offering
备@@
review
愤怒@@
延@@
继承@@
引起了@@
并不能@@
grounds
interest-rate
可谓@@
切实@@
conduct
叙利亚
瑞士@@
了一场@@
subsequent
ambitions
south
一体化@@
盟@@
fundamentally
discussions
的工作@@
approval
port
tar@@
牌@@
ice
NA@@
cyclical
也因此@@
转化为@@
二十@@
harder
1990s
Assembly
会对@@
minimum
ing-@@
implementing
如何
illegal
revolutionary
ious
西方的@@
function
长达@@
延长@@
影响的@@
纳税人@@
基督教@@
weaken
喜@@
超过了@@
predict
残酷@@
one-third
ture
背后的@@
accountability
行业
推迟@@
din@@
taxation
许@@
塞浦路斯@@
训练@@
purchase
思想
采取行动
TPP@@
迈@@
21世纪@@
extended
Thailand
什@@
variety
opened
momentum
联合国安理会@@
rulers
fossil
ches
价格的@@
理解
不必@@
几乎所有@@
违反@@
条
家族@@
leaves
范围
药品@@
积累@@
species
usual
Bill
亚
们
该地区的@@
肯尼亚@@
短缺@@
个月@@
successor
指控@@
researchers
hy@@
sec@@
来源
许多国家@@
revealed
简单的@@
历@@
含@@
激励
招@@
穆巴拉克@@
computer
欣@@
政权
spe@@
Unlike
这一问题@@
threaten
让人们@@
complicated
堡@@
weakened
lacks
频@@
demonstrate
出资@@
履行@@
帮@@
Ma@@
2000年@@
reaction
成员国的@@
烟@@
demographic
demanding
00@@
interventions
devastating
weakening
White
ial
Germans
斯坦@@
undoubtedly
也同样@@
涨@@
遭到了@@
而被@@
wealthy
shifting
Agreement
rarely
富有@@
影响到@@
穿@@
renewed
frequently
meny@@
stress
在其他@@
深入@@
passed
他们对@@
分享@@
处
好像@@
refused
birth
传统的@@
fu@@
Atlantic
也包括@@
大量的@@
systemic
的地区@@
规@@
经济发展@@
东欧@@
1.5
构成了@@
毒品@@
appeared
共同的@@
ж@@
变得更@@
applied
4年@@
篇@@
已经被@@
customers
问题在于@@
一再@@
参与者@@
周边@@
严峻@@
proportion
downward
差异
lasting
4.@@
出口
mobile
中共@@
deals
mel@@
civilians
expanded
盈利@@
ass
tur@@
煤炭@@
潜@@
比重@@
设备@@
3月@@
As@@
功@@
California
eyes
患@@
trac@@
charges
mental
战胜@@
replaced
狂@@
counterparts
三大@@
最初@@
二氧化碳@@
等待@@
冒险@@
dream
板@@
Spanish
愿@@
错
这也@@
cl@@
centers
技术和@@
组成的@@
executive
都无法@@
encouraged
作为一个@@
diverse
签@@
Saddam
专利@@
歧视@@
Agency
1930
有限
达
的基本@@
雨@@
调查
本人@@
电力@@
narrative
强大
ils
secara
ә@@
except
旗@@
皇@@
和欧洲@@
image
鱼@@
壮@@
pointed
united
raises
办@@
多种@@
讲
simultaneously
的东西
improvement
营养@@
warned
Stability
欧元区
dead
人为@@
糟糕@@
控制的@@
ISIS
de-@@
工资
guarantees
见的@@
measured
liber@@
会有@@
shi@@
人道主义@@
Change
边缘@@
responses
脚@@
的价格@@
3年@@
评估
Brotherhood
retirement
和安全@@
恐慌@@
另一种@@
voice
过去
当时
莫迪@@
掌@@
十年
Whether
participants
twice
ana
固定@@
税收
看法@@
yields
阶级@@
aside
倾@@
戴@@
数十年@@
在某些@@
阶层@@
的意@@
殖民@@
mainstream
facts
差
por@@
恐怖袭击@@
政治的@@
理性@@
menjadi
今@@
救助@@
concerning
消极@@
纠正@@
规定
示@@
Ho@@
advantages
的权利
战后@@
在线@@
其对@@
地方
supposedly
adi@@
pain
科索沃@@
南欧@@
质
ining
基地组织@@
约束
魔@@
happening
猛@@
仍有@@
运转@@
academic
倾向于@@
和中国@@
神经@@
观
敌@@
整合@@
幸福@@
修改@@
lim@@
毫无疑问@@
激烈@@
独立
都需要@@
义务@@
smart
低利率@@
10年@@
discipline
我们已经@@
managing
surprisingly
Netherlands
提议@@
Much
都可以@@
太阳能@@
结果是@@
速@@
麻烦@@
无论是@@
阿巴斯@@
borrowers
欧元区的@@
意愿@@
环@@
想
分散@@
blood
雇主@@
400@@
参与
partnership
relationships
aged
养老金@@
慈善@@
当中
br@@
和国家@@
领先@@
pi@@
敏感@@
程序
imperative
stories
o-@@
流入@@
担心
癌症@@
不仅是@@
需求的@@
mal@@
它将@@
bodies
Philippines
军
财富
议程@@
den
memper@@
peak
在不@@
assessment
Cuba
downturn
课@@
背后@@
币@@
聚@@
1999
succeeded
Angela
这里@@
的大规模@@
80@@
外界@@
奇
ile
它是@@
模@@
客@@
徒@@
wisdom
亿人@@
更重要的是
追@@
stopped
courts
alizing
匈牙利@@
形式
如果没有@@
这让@@
wa@@
proven
明确的@@
反对
心的@@
narrow
政权的@@
回应
怀疑
match
繁荣的@@
确实
这些问题@@
很多
chaos
protest
作
所能@@
根本不@@
提高了@@
分
PARIS
现代化@@
毕竟@@
original
身体@@
debates
停滞
dar@@
pres@@
审判@@
土耳其的@@
公约
母亲@@
connected
shes
财政政策@@
爆炸@@
盟友
alternatives
企业和@@
丧失@@
bigger
ris@@
你的@@
在这方面@@
facilities
8月@@
tw@@
negotiated
团队@@
受益
统治
的挑战
Modi
银行和@@
形成了@@
import
下来
之处
份额@@
ғ@@
起了@@
缩@@
brings
destroy
chronic
之外的@@
university
悲剧@@
ar-@@
Department
同一@@
以后
必须在@@
寻@@
selling
武@@
今后@@
triggered
就要@@
发展中国家
指标
识@@
布
discrimination
抵抗@@
expenditures
compensation
generating
搞@@
票
65
幅度@@
会被@@
药
directed
吸引力
泡沫
adverse
意大利
贾@@
以来的@@
counter-@@
stimulate
read
ө@@
一部分@@
progressive
car
声明@@
的领导@@
ekonomi
真主党@@
敦促@@
cont@@
runs
结论
Sudan
kinds
divide
实力
女孩@@
black
生活的@@
餐@@
identified
改进@@
以为@@
发
筹@@
灵活@@
our@@
意识@@
悲观@@
tual
站在@@
нд@@
stocks
乃至@@
shares
winning
方的@@
sexual
称为@@
fore@@
新加坡@@
额
cars
26
了美国@@
ening
foreign-exchange
难民
断
威胁到@@
成为一个@@
命运@@
就需要@@
thanks
权威@@
应用@@
文
系统性@@
戈@@
艺术@@
鼓吹@@
知的@@
姆
advice
prefer
provision
responsibilities
构@@
强势@@
无所@@
最终
就越@@
asi@@
ency
carefully
领导层@@
认识到
ultimate
朋友@@
4月@@
利息@@
父@@
自然资源@@
需@@
Kenya
左@@
士兵@@
methods
迫@@
ever-@@
pursued
保险
万亿美元@@
state-@@
资格@@
heard
范@@
反映出@@
表现
伴随着@@
早就@@
四个@@
globally
strengthened
连续@@
streets
面前@@
和解@@
容忍@@
申请@@
法治@@
worried
的同时
可能性@@
properly
capture
aftermath
触@@
的理由@@
自由化@@
block
ric@@
跨境@@
travel
extend
从中@@
在最近@@
是如何@@
很大@@
弄@@
内容
written
Be@@
职位@@
福利
Ber@@
consistently
底
collapsed
Free
太平洋@@
extra
minorities
showing
seperti
far-reaching
damaging
speci@@
用户@@
是如此
head@@
Ste@@
brutal
struggling
可持续发展@@
phenomenon
开支
confrontation
如果不@@
低收入@@
在一起
invested
stated
tradition
妥协
最重要的是
扩大
lam@@
depreciation
辛@@
岛
教育的@@
门
diversity
休@@
broadly
小组@@
议员@@
讲话@@
displaced
领导
亿欧元
扭转@@
科学
Forum
罗马@@
speed
nine
fails
trials
声
component
Go@@
在政治上@@
信仰@@
萧条@@
limiting
摩@@
来自于@@
缺陷@@
授权@@
presidents
solar
multiple
此
保护主义@@
的债务@@
载@@
中国人@@
人均@@
以及对@@
ene@@
2006年@@
挽救@@
挤@@
在2008年@@
混乱
不愿意@@
pp@@
le-@@
eastern
hol@@
射@@
想法@@
sophisticated
编@@
root
fication
True
适合@@
benefited
Myanmar
比方说@@
通过
谈判的@@
死于@@
低的@@
concrete
strikes
称之为
核武器
innovations
ran
iled
调
functioning
到底@@
它在@@
representatives
布莱尔@@
走上@@
创业@@
2004年@@
极大地@@
Goals
震@@
consequence
repression
防务@@
稳定和@@
宪法
pay@@
somewhat
middle-income
诸@@
brain
two-thirds
index
说是@@
spring
参议院@@
实施了@@
成为了@@
重大的@@
annya
sy@@
理由
No@@
tations
分裂
extremists
分子
源
大家@@
依旧@@
计算机@@
当年@@
initially
缓慢
Lo@@
极大@@
地位的@@
chemical
渠道@@
文明@@
.5
成员
以后@@
义务
审查@@
政党
前总统@@
27@@
地方政府@@
紧缩
到201@@
户@@
的一项@@
委@@
asan
perfect
1997
也许是@@
几乎没有@@
BRICS
weather
Abbas
日常@@
太多@@
升值
性质@@
G20@@
9年@@
考虑
类
cyber
投票
夏@@
similarly
dispute
这对@@
argues
facilitate
般@@
现
方针@@
一套@@
Morsi
focusing
最有@@
上涨
弱势@@
然
foundation
地的@@
reliance
forcing
Bangladesh
materials
突尼斯@@
apparently
绝不是@@
进而@@
ease
renewable
roads
syn@@
的信息@@
purchasing
Copenhagen
多个@@
讨@@
设施@@
法国和@@
serving
hand@@
au
gaining
Sp@@
最好的@@
务@@
planned
proper
扣@@
transform
aims
时刻@@
清洁@@
atmosphere
俄罗斯和@@
群体
弃@@
工人
van@@
隆@@
肥@@
转移到@@
ty-@@
监控@@
遗@@
岗位@@
暴露@@
tures
盖@@
draw
equipment
关心@@
foreign-policy
可能在@@
计
deposits
cal
ites
难
发放@@
phase
sets
Pe@@
商品
estate
reli@@
的反应@@
年度@@
colleagues
q@@
notion
象征@@
久@@
ess
加剧了@@
tool
cent@@
勒
diver@@
undermined
abandon
separate
融合@@
抵@@
door
mobility
ment@@
我们
抵押@@
相同@@
室@@
全新@@
混@@
ss
可能的@@
预算
加快@@
富人@@
proliferation
drawn
该计划@@
2001年@@
问题上的@@
茨@@
greatly
famous
overwhelming
可信@@
Dutch
批评
物种@@
rel@@
排名@@
journalists
ker@@
明显的@@
equ@@
成果
发明@@
只占@@
屠杀@@
视
operation
real-estate
dealing
г@@
出现的@@
开
ther@@
Jo@@
enting
ward
represented
ell
Bernanke
按揭@@
他对@@
评@@
主
势力
担保@@
争论
turns
guide
impressive
病人@@
send
圈@@
实践@@
历史的@@
ll
types
兴趣@@
Big
considerably
Malaysia
了一项@@
а
访@@
sum@@
bs
She
regarding
prison
plant
块@@
treat
Authority
patterns
50年@@
米
签订@@
糟糕
外的@@
而美国@@
更多
tically
Hungary
waste
DNA
maintained
nation@@
mortgage
Group
伪@@
起作用
化学@@
响应@@
rational
容易
压制@@
法案
ster@@
急需@@
twenty-first
1998
wonder
饮@@
的同时@@
Let
公民
削弱了@@
获得的@@
系@@
外汇储备@@
但我@@
份
提供的@@
抛弃@@
费用@@
亚洲的@@
命运
You
称
所赐
力量的@@
亿
participate
enemies
身上@@
继@@
填补@@
characterized
被认为是@@
tional
hur@@
航@@
minds
ignored
当
西班牙
spirit
理应@@
斯大林@@
欧洲领导人@@
夺@@
scheme
older
破产
slightly
授予@@
assumed
Harvard
prosperous
1年@@
mortgages
哥@@
Burma
可以从@@
longer-term
反复@@
trigger
事业@@
enjoy
也被@@
可行@@
的地位
2,@@
outright
非洲的@@
emb@@
abuse
meaningful
将被@@
和高@@
变革
储蓄
bl@@
再加上@@
数量
ет@@
波动
意见@@
公约@@
sli@@
rightly
conf@@
staff
杂@@
联盟的@@
之际
枪@@
Political
衡量
穆尔西@@
challenging
estimate
comp@@
差距
的无@@
sto@@
communism
改变了@@
gener@@
existence
教授@@
stem
的增长
传统
Moscow
看看@@
例外
家庭
white
telah
永@@
大学的@@
的事情@@
extraordinary
governing
Conference
方针
美军@@
apart
伟大的@@
公共部门@@
的计划
汇@@
洪@@
这在@@
一半@@
试验@@
favorable
suddenly
rat@@
将
补偿@@
与中国@@
responded
surveillance
Euro@@
improvements
发出@@
就有@@
要在@@
叛@@
fourth
渐@@
加剧
moves
国家安全@@
美国对@@
perubahan
利润
intensive
define
合法性@@
City
Research
Board
transformed
明显
Berlin
卡扎菲@@
ect
有什么@@
也更@@
fre@@
成果@@
IR@@
石油价格@@
hunger
赢@@
у
pemerintah
entered
near-@@
Mediterranean
content
范围内@@
Every
在政治@@
uk@@
statements
专门@@
ер@@
谷@@
起诉@@
anniversary
Sustainable
dependence
案
欢迎
遗传@@
光
清楚
西欧@@
multi@@
各国的@@
Ben
争夺@@
不在@@
tting
低碳@@
曲@@
Should
inclusion
bas@@
onto
plenty
信号
扫@@
commit
L
黄@@
recover
policymaking
importantly
运动的@@
的理由
Nuclear
摆@@
负责任@@
游戏@@
coverage
iklim
阿拉伯国家@@
叙利亚的@@
stra@@
草@@
出台@@
creative
ational
最新的@@
accelerate
realistic
Le
汇率
Tra@@
简@@
民间@@
承@@
同事@@
有关的@@
unemployed
medi@@
ement
rit@@
Center
下了@@
memb@@
但这种@@
sa
细@@
爆发
secondary
时任@@
人所@@
kill
albeit
noted
ading
Convention
ol
sible
None
predicted
派的@@
15年@@
non@@
暗示@@
map
本月@@
不得@@
cells
的重要性
Bashar
да@@
enforcement
稳@@
sight
的可能性
间接@@
dominance
liabilities
的方案
coordinated
就不会@@
obstacles
坦@@
Clearly
3.@@
missile
银行家@@
并因此@@
ін
纽@@
根源@@
oppose
塞尔维亚@@
perception
树@@
Chávez
减排@@
female
天主教@@
结合@@
Who
显@@
interested
三十年@@
流行@@
率的@@
unconventional
iling
四年@@
流动性
chains
牙@@
2003年@@
偿付@@
ley
manner
失业
poorer
相应@@
谈
rating
san@@
韩@@
阿拉伯世界@@
claiming
不如@@
政变@@
会带来@@
建造@@
remember
料
披露@@
规范@@
伊朗和@@
Any
累@@
threatens
wel@@
抱@@
医@@
ath@@
entrepreneurs
Islamists
ain@@
泽@@
的名@@
Education
处在@@
行长@@
地中海@@
platform
happy
活动的@@
ler
ff
micro@@
&apos;
监狱@@
自愿@@
分离@@
英国和@@
查韦斯@@
办公室@@
intervene
习@@
埃博拉@@
Hollande
保罗
出版@@
纪念@@
ket
撒@@
contract
不久@@
美国总统奥巴马@@
island
序@@
不利@@
薪酬@@
cul@@
和投资@@
借助@@
成本的@@
推广@@
纸@@
coun@@
insufficient
得更@@
headed
关闭@@
donors
条款
workforce
和不@@
Before
caught
问
师
justify
介入@@
忽略@@
世界其他@@
ase
在与@@
州
secret
James
shifts
ann@@
一个国家@@
工厂@@
到20@@
isolation
信任
普京的@@
ourselves
外汇@@
chain
-based
对话
夜@@
yen
inefficient
运输@@
乱
experiencing
丽@@
合同@@
重组
land@@
以上的@@
他们将@@
有效地@@
配置@@
col@@
poses
backing
组合@@
lay
免费@@
protected
情形@@
右@@
相似
希腊的@@
政治和@@
difficulties
的一切@@
enhancing
知识
ft
Afghan
counter
购@@
neo-@@
水资源@@
以确保@@
攻击
记忆@@
involvement
statistics
dering
吧
oun@@
和新@@
这笔@@
ay
clo@@
技能
EN@@
cal@@
仔细@@
点的@@
第三个@@
新
重要的
free-trade
治疗
活跃@@
医院@@
ero@@
祖@@
ery
发达国家的@@
Romney
衣@@
expenditure
阻@@
emphasis
presented
combat
meetings
项目的@@
persistent
compelling
僵局@@
resort
中最@@
成
的技术@@
料@@
在今年@@
延续@@
迎来@@
ес@@
逼@@
monopoly
Among
picture
believes
Kurdish
cy
fin@@
fields
retain
天的@@
tric@@
代表
fueling
sensitive
否决@@
2050
reg@@
和环境@@
obviously
mer
丝@@
下一个@@
Denmark
北部@@
broken
无论如何
Three
童@@
rooted
工业化@@
说法@@
国王@@
21@@
都应该@@
的速度@@
avoided
inj@@
sold
vehicles
多么@@
盈余
压倒@@
严厉@@
中东地区@@
扬@@
ұ@@
单位@@
severely
这条@@
risen
其他国家的@@
1-@@
决议@@
遭@@
看待@@
在没有@@
Scotland
民众
速度
凡@@
populism
资产的@@
堪称@@
质疑
在他@@
侵@@
将对@@
袭击
已有@@
类似于@@
enemy
mp@@
sensible
imposing
28@@
exists
right-wing
Brussels
books
6.@@
出生@@
tragedy
时候
Hillary
资产价格@@
Southeast
1980s
al-Assad
该国的@@
减少了@@
neighboring
务实@@
工党@@
influential
激发@@
1.@@
volatile
King
尼亚
Facebook
豪@@
Others
insist
preserve
哪怕@@
经合组织@@
Q@@
大会@@
其中包括@@
一些
区别@@
可以让@@
employers
宣@@
false
果断@@
金融稳定@@
滥用@@
不出@@
榜样
重要的是@@
总量@@
颠覆@@
动力@@
就无法@@
极有可能@@
内贾德@@
即便是@@
earn
write
弱
做法
involve
的一次@@
quick
catastrophe
形象@@
survey
并为@@
完成
有些人@@
ping
Man@@
resist
这种情况@@
狂热@@
人群@@
首席@@
indicators
设定@@
dictatorship
迈向@@
Google
韩国
的话@@
确认@@
ately
清晰@@
crash
rage
目
题@@
穆沙拉夫@@
完@@
报道
制约@@
街头@@
今年的@@
doctors
数十@@
笑@@
货@@
approved
0年@@
Sha@@
risk-@@
count
强的@@
Ben@@
seats
时刻
欧
sites
的计划@@
manipulation
绝大部分@@
2016年@@
报纸@@
减速@@
ranging
ref@@
achievement
targeting
ko@@
ben@@
转变为@@
全球经济的@@
20世纪70年代@@
Finance
捕@@
依赖
ast
accused
数的@@
wish
ok
劳工@@
这个问题
在经历了@@
大力@@
的方向@@
loan
ты@@
全世界的@@
modernization
prolonged
竞争力的@@
接着@@
adapt
feeling
总额@@
activists
耳@@
testing
yed
star@@
现有的@@
talent
attempting
幻@@
expression
大规模的@@
数千@@
extremism
ain
careful
的动@@
清楚地@@
informal
links
意的@@
乔@@
-up
向
partnerships
国内的@@
大西洋@@
繁@@
Democracy
龙@@
牵@@
政策和@@
他们认为@@
uring
田@@
货币的@@
features
恰恰@@
程@@
gan@@
找@@
论坛@@
wait
slower
获胜@@
hin@@
潜力@@
采取行动@@
granted
抗生素@@
尤其是在@@
伦理@@
出来的@@
wor@@
产能@@
生态@@
模式的@@
dropped
exp@@
600@@
支出的@@
署@@
affordable
成就
与之@@
动力
前景
lah
devaluation
Am@@
因而@@
Musharraf
更高
第二次@@
完整@@
症
是通过@@
资本流@@
团结
constrained
prominent
ky
突破@@
openly
patient
poorly
Po@@
Pi@@
1979
过程中
组成部分
提醒@@
培养@@
在危机@@
真相@@
abandoned
regi@@
价值观
desirable
controversial
explo@@
involving
将来@@
恰@@
但美国@@
bit@@
莫斯科@@
私营@@
恰恰相反
在201@@
看法
哥本哈根@@
野@@
中东
中美@@
provisions
能为@@
平等
reluctant
梦想@@
sol@@
internationally
un
循环@@
惯@@
回应@@
实施的@@
佐@@
费
货币政策
重振@@
受过@@
险@@
一体化的@@
的选择
的成@@
missing
学院@@
tens
内阁@@
律师@@
的外交@@
理事会@@
acknowledge
主权
evolution
tical
位置
逆@@
的承诺
rebalancing
击
medicine
显而易见
选票@@
的核@@
agency
人口
binding
不良@@
sal@@
23@@
对他们@@
创建@@
150@@
jo@@
run@@
却在@@
这不是@@
马拉@@
stood
将导致@@
的方案@@
乌克兰
的事实
urgently
全民@@
和技术@@
终结@@
燃@@
梦@@
bly
他所@@
familiar
各大@@
的信@@
前往@@
acceptable
孤@@
困@@
大屠杀@@
日元@@
didn
数百@@
han@@
protectionism
pal@@
的那样@@
yn@@
的基础@@
稀@@
ji@@
looked
tain
delay
ecting
痛苦
animals
法国总统@@
5.@@
婴儿@@
қа@@
Keynesian
带着@@
做的@@
电影@@
参议员@@
evident
人才@@
Army
显而易见的@@
未必@@
bri@@
命
接受了@@
terhadap
绝望@@
本身
总需求@@
sun@@
couple
我
受害者@@
ects
自由和@@
变
交换@@
种植@@
北美@@
sia
wise
ң@@
检查@@
breaking
2.5
批评者@@
所
作为
tered
贫@@
抵御@@
slowing
岁
包容性@@
founded
ures
海军@@
下降了@@
north
Unless
阻挠@@
民主和@@
本来@@
buil@@
潮
亦@@
财政赤字@@
inside
平心而论
述@@
Hitler
的一大@@
removed
罚@@
fit
不确定性
skilled
ini@@
宽@@
-led
seeing
双重@@
vulnerability
oil-@@
1991
尽可能@@
logical
很大程度上@@
防御@@
看作@@
缓和@@
comparable
学者@@
松@@
通往@@
亦然
的成本@@
以
法塔赫@@
强迫@@
却没有@@
一开始@@
are@@
别
vaccines
卫@@
G
国债@@
Serbia
途径
indicate
等等
residents
tou@@
dangers
cle@@
spur
投资者
入了@@
毛@@
的行动@@
Constitution
pass
去年
的法律@@
ack
underway
刚@@
的能源@@
章@@
公平
Front
imply
requiring
起到了@@
her@@
要素@@
恐惧
waiting
Cooperation
absolute
域@@
文章@@
sudden
荣@@
待
叛乱@@
将让@@
德里@@
guaranteed
裁@@
恩
厂@@
金融体系@@
electorate
Recent
观察家@@
本世纪@@
在整个@@
popularity
标志着@@
eg@@
埃及
证据
涅@@
背景@@
nineteenth
公司和@@
有机会@@
单方面@@
注定@@
asking
白宫@@
意见
rival
á@@
2-@@
pur@@
lenders
sup@@
似乎是@@
首先是@@
mounting
lessness
保守派@@
Public
裔@@
squ@@
destroyed
息
resilience
没有
桑@@
另@@
resolved
简单
sex
英镑@@
危@@
openness
25年@@
受益@@
鲜@@
Reagan
深远@@
根本性@@
aj@@
统治者@@
乐观
创新的@@
Sal@@
这一观点@@
exporters
ол@@
安全和@@
cru@@
西方国家@@
outlook
官
敬@@
可以为@@
风
存在于@@
dam@@
tackle
碰@@
lab@@
大于@@
Foundation
大胆@@
潜在的@@
Polish
repeated
就没有@@
斗@@
cell
Shanghai
不容@@
tightening
finances
消息@@
virus
环保@@
一些国家@@
候选人
违约
hard-@@
prepare
更好@@
传染病@@
手中
是什么@@
菌@@
质量
sem@@
politik
将军@@
证
banyak
徒
情
justified
oriented
Bi@@
赚@@
和平的@@
85
每一@@
展示@@
motivated
疲@@
gradual
pul@@
奥朗德@@
English
私有@@
识别@@
Khamenei
stabilize
问责@@
erupted
举措
projected
ped
这份@@
ign@@
庆@@
reductions
倒闭@@
泥@@
非洲
的巨大@@
飞机@@
Stalin
危害@@
reject
动机@@
动用@@
事务
struck
更糟糕的是
它们
拖累@@
空气@@
foundations
频繁@@
末
转而@@
分析
是不可@@
面的@@
从
树立@@
inflationary
ity-@@
fied
politician
注意力@@
gre@@
罪
ас@@
fic@@
提到@@
失败的@@
导致的@@
accurate
云@@
做了@@
案例@@
得出@@
式
procedures
马来西亚@@
分配
cop@@
统@@
和公共@@
pas@@
Ru@@
aboli@@
演讲@@
赖@@
积极的@@
Are
也许会@@
tru@@
balances
Pen@@
经济增长的@@
low-income
身为@@
北方@@
生产力@@
yp@@
世界各国@@
foreigners
恐@@
th-@@
Government
详细@@
oned
在国内@@
formed
也要@@
对这些@@
不上@@
sequ@@
坚决@@
丰@@
高速@@
accountable
体制
租@@
发展中@@
wan@@
职
wall
是的
军队
Richard
认识
lend
seeks
是一项@@
活力
影响力的@@
Each
丹麦@@
love
sufficiently
声音@@
上的
ate@@
敌人
充满了@@
凭@@
Fatah
的海@@
doctrine
赞成@@
财政部@@
明确
26@@
负
做到@@
challenged
可行的@@
ck
其
Ta@@
est@@
sooner
削弱
下滑@@
伟大@@
foster
的能力@@
补充@@
和全球@@
内部的@@
墙@@
anxiety
ukan
ight
ered
机构和@@
explained
zes
signal
准备
Arabs
Ebola
巴基斯坦
热情@@
imperial
numerous
免疫@@
队
慢@@
像
ater@@
populists
阴@@
fies
吸@@
何时@@
可靠的@@
realized
身上
工
labor-market
存
账户@@
的决定@@
太过@@
商品价格@@
的地区
Ahmadinejad
contributing
更容易@@
政
而这一@@
Mexican
欲@@
plays
极端主义@@
analysts
ick@@
小时@@
亮@@
atively
U
actively
competing
fold
杀
歌@@
Against
呼@@
思
Cyprus
工人的@@
ards
rare
所产生的@@
甘@@
advocates
车
Millennium
trip
release
产品的@@
chan@@
移民的@@
正确
Greenspan
dominate
half-@@
贴@@
CEO
constant
意愿
要素
generous
移动@@
身
性地@@
accession
发射@@
criteria
anywhere
希拉里
此后@@
Friedman
在去年@@
不确定性@@
vit@@
而中国@@
废除@@
建设
有望@@
的重@@
Mario
convergence
WTO
有必要@@
PA@@
mix
随之@@
无视@@
Law
的东@@
让美国@@
Alliance
fill
trap
empire
免受@@
收集@@
举动@@
志@@
写道
体育@@
Where
visible
low-carbon
ress
区分@@
巧@@
adjust
respectively
saved
汉@@
background
reconciliation
的做法@@
万亿@@
所在
恐怖主义
yes
里根@@
orang
problematic
ide@@
在了@@
软件@@
诸如@@
进
设置@@
都不会@@
investor
伙伴关系@@
ro
Labour
逆转@@
担@@
众议院@@
reversed
ared
你们@@
欢@@
avoiding
就业和@@
的欧盟@@
的和平@@
od@@
autonomy
lat@@
prevented
不久前@@
两党@@
始于@@
ounding
冒@@
的人们@@
重的@@
comm@@
的公司@@
Mu@@
制药@@
不存在@@
核能@@
就算@@
全体@@
旅@@
一
vic@@
深化@@
unit
communications
曼
播@@
罗伯特
executives
奥巴马总统@@
gam@@
attitudes
assumption
tal
concentrated
邪恶@@
anan
响@@
极度@@
pensions
方向
愤怒
chose
Bre@@
fairly
Kyoto
艰巨@@
保守党@@
achievements
只不过是@@
保证
的那@@
monitoring
desperate
fish
了一系列@@
oning
peoples
те@@
日程
侵略@@
的时代
露@@
Jerusalem
tation
武力@@
ron@@
lived
不够@@
明的@@
forecast
主要的@@
哪里@@
颇为@@
实质@@
Chairman
bing
手中@@
足
significance
士
地理@@
使用的@@
insul@@
AI@@
估计
合作的@@
introduce
arguing
很大
SA@@
post@@
sama
pharmaceutical
ki
酒@@
记录
division
Women
阿尔@@
胆@@
Ju@@
chances
2月@@
金钱@@
法国人@@
生产
跳@@
民调@@
著名的@@
在上@@
richer
ve-@@
而又@@
卡
做得@@
但中国@@
任
北朝鲜@@
从根本上@@
destructive
ali
fulfill
稍@@
berg
即将到来的@@
遵循@@
华尔街@@
Back
periods
剥夺@@
丰富@@
下一@@
大幅度@@
管制
错误的@@
不满
疑
Berlusconi
味@@
regular
事故@@
这与@@
中获益
费用
补@@
ets
致
Cor@@
ened
judgment
这些国家的@@
intense
fil@@
lessly
1995
席@@
arm@@
兑@@
毛泽东@@
落实@@
payment
的需求@@
长期以来@@
Ali
迟@@
颇@@
ular
选
facto
cheaper
的国内@@
世界上最@@
announcement
Summit
informed
矛盾
变得越来越@@
契约@@
盟国@@
片
除
ore
股权@@
computers
财产@@
端
或
expertise
的一份@@
他将@@
begins
认同@@
consul@@
办法是@@
90@@
展@@
警告
乌克兰的@@
这些措施@@
的东西@@
retail
ented
genocide
work@@
过了@@
希特勒@@
Deng
divisions
reputation
mother
看到了@@
platforms
不确定@@
oring
放任@@
旁@@
loo@@
Mal@@
根本没有@@
friendly
awareness
剧烈@@
BERKELEY
区别
gs
狭隘@@
谷歌@@
hanya
2017
导向@@
logy
campaigns
航空@@
adopting
plus
对付@@
谈论@@
当时的@@
父亲@@
giant
健康的@@
尼亚@@
it-@@
升高@@
oll@@
更广@@
port@@
尾@@
严格的@@
概念
judges
对经济@@
欧盟和@@
美国国会@@
考验
会议上@@
欧洲经济@@
的有@@
and-@@
退出
pricing
ale
佳@@
管
中亚@@
遇@@
fundamentals
德国人@@
新一轮@@
Qatar
considering
会让@@
萎靡@@
owned
可怕的@@
动摇@@
ie@@
commodities
检@@
起的@@
传递@@
ancient
消耗@@
不知@@
committee
治理
earth
disasters
ection
pressed
与伊朗@@
壁垒@@
富裕国家@@
halt
必要
厚@@
柏林
ships
阿富汗
Mer@@
应该在@@
的公@@
家庭的@@
沃尔@@
企图@@
石油
enhanced
手机@@
skill
弥补@@
Earth
discovered
南海@@
通货膨胀
Krugman
code
kes@@
Wal@@
arise
坚定@@
顿
sh
大有@@
nor@@
kin@@
故@@
solid
西方
High
3-@@
machines
TB
设施
qui@@
inability
提升
捐助@@
allocation
tion@@
最多@@
尖@@
Tri@@
的经济体@@
fun@@
政府必须@@
constitu@@
short@@
produces
似@@
beneficial
不太可能@@
答案
不稳定@@
stan@@
的问题是@@
加州@@
货币政策的@@
升级
以往@@
增
tends
channels
eager
抱怨@@
Trans-Pacific
Norway
指望@@
жа@@
purposes
因为
明白
思维
conclude
exposure
就已经@@
ced
grand
工程
流动
安排
predictable
famously
ef@@
解
建立起@@
涌@@
assess
sional
murder
之前的@@
会谈@@
circle
缩小@@
interpretation
基地@@
征收@@
不那么@@
察@@
details
enforce
的成功@@
银行业@@
discussed
Op@@
提前@@
毫不奇怪
negotiation
之一是@@
情景@@
巨头@@
考@@
认可@@
dri@@
同情@@
arrangement
quest
有点@@
模糊@@
账@@
俗@@
加
difficulty
自由主义@@
unstable
adoption
shadow
recognizing
的共同@@
的资金@@
再度@@
全球贸易@@
犯
hi
town
房屋@@
超出@@
site
1950
生产率
cing
特别是
远离@@
脆弱
isolated
仇恨@@
但当@@
Worse
kes
现状
hour
bureaucracy
植@@
森
无数@@
ratios
dness
癌@@
伯克利
保障
敌对@@
运行@@
Whatever
愿景@@
Times
student
不再是@@
葡萄牙@@
slowed
救援@@
人士
根本无法@@
联合国的@@
更有可能@@
途@@
以下@@
婚@@
representative
世界最@@
aspirations
自杀@@
数字
sectarian
角度看
fresh
可以用@@
肯定会@@
多年的@@
洗@@
mortality
的情况
tam@@
puts
选民
食物@@
转移
确定
进入了@@
升高
nonetheless
1992
发达国家
逊@@
pursuit
哈梅内伊@@
美国和欧洲@@
官员
园@@
危机爆发@@
北欧@@
这一切@@
欧洲议会@@
父母@@
explains
sit
充当@@
接着
比方说
lowest
比其他@@
灭@@
extensive
能够在@@
ara
宣扬@@
nuclear-@@
pel@@
荒@@
tons
证明了@@
我们将@@
席位
bomb
fra@@
阵@@
judicial
秘@@
integrate
HA@@
first-@@
Having
ti
售@@
难题
mitigate
民
Jinping
均衡@@
ective
如同@@
Office
想法
law@@
Ko@@
全球金融危机@@
fellow
句@@
feasible
tested
definition
布鲁塞尔@@
19世纪@@
distant
To@@
破坏性@@
sebagai
罗
Pri@@
贵@@
著@@
持续的@@
法的@@
一方面@@
refuse
software
特里@@
海啸@@
几周@@
Economy
za
propaganda
deepening
engine
weaknesses
很可能会@@
投资者的@@
迪
态@@
human-rights
genes
替@@
前进@@
itation
parti@@
pling
public-sector
home@@
crops
东南亚@@
终结
自治@@
他还@@
所面临@@
toxic
supervision
defin@@
Indians
marriage
aran
western
动作@@
积@@
进化@@
组成
金融部门@@
番@@
ES@@
智能@@
目光@@
alliances
架@@
ranks
可以被@@
挪威@@
基金会@@
其经济@@
决
义
材料@@
报
雇员@@
marginal
ener@@
2年
1,000
我认为@@
很好的@@
contemporary
bal@@
滑@@
Michael
儿童
更快@@
street
vely
tactics
介@@
uan
雄@@
memory
肯@@
他是@@
透@@
的选举@@
fy
如果他们@@
inspired
普及@@
够@@
归咎于@@
flawed
evil
政府对@@
反过来@@
territories
realities
拥@@
静@@
英格兰银行@@
loc@@
note
form@@
stakes
or-@@
低估@@
新的
panic
第二
形象
fought
acute
烟草@@
码@@
中东的@@
大肆@@
外围@@
的方式来@@
的低@@
communication
peng@@
自由市场@@
iring
日子@@
dignity
aya
reinforced
revive
attempted
色
伊拉克战争@@
背景下
Kurds
董事会@@
joining
steadily
Joseph
最高法院@@
Def@@
acted
接受的@@
houses
辞@@
exceed
manife@@
价值的@@
naturally
im
欧洲大陆@@
Pen
暴力的@@
alongside
索马里@@
珍@@
这使得@@
风暴@@
伴@@
充斥着@@
给出@@
边
信誉@@
部队
understandable
optimistic
entry
Northern
classes
unwilling
走出@@
typical
减速
击败@@
利亚@@
somehow
Power
争议
当作@@
dilemma
援@@
striking
吨@@
迫切@@
aci@@
邓小平@@
的基础
很重要
牢@@
awa@@
其自身@@
smo@@
enacted
energi
库
的时间
五个@@
的总@@
95
considerations
世
employed
comman@@
世界各地@@
Bretton
prior
的第一@@
收益率@@
eliminating
separ@@
陷阱
并非如此
backlash
得多的@@
feed
当代@@
weapon
依然是@@
tension
充分的@@
危机中@@
owners
鲁哈尼@@
益@@
1989年@@
两倍
demanded
学会@@
奈@@
他们会@@
雇@@
无人@@
satu
衰落@@
unfair
就是
有权@@
它们在@@
deny
irs
如果美国@@
Mahmoud
sou@@
资源的@@
罗姆尼@@
tariffs
认知@@
apo@@
teachers
Draghi
和就业@@
它所@@
在对@@
收购@@
更好
supports
南亚@@
observed
clu@@
规则的@@
撒切尔@@
creditor
tively
倾向@@
因
restoring
忧虑
的最高@@
服务的@@
其中
Lu@@
sin@@
代表了@@
定期@@
traditionally
flight
委员会的@@
co
coherent
袭@@
困扰@@
就应该@@
等于@@
扩散@@
典@@
donor
渐进@@
索
尤为@@
疾病的@@
三分之二@@
nic@@
深刻的@@
lain
ind@@
ға
delivery
百分@@
l-@@
国有企业@@
Ban@@
ick
强有力的@@
日本和@@
伙伴
settle
ue
principal
相似@@
逐@@
算
win@@
痛苦的@@
Woods
eye
行业的@@
份子@@
ata
财政刺激@@
pragmatic
土地
习惯@@
叶@@
镜@@
民粹主义者@@
误导@@
人员
greenhouse
驱逐@@
aled
eding
legislative
contrac@@
中国对@@
shifted
route
到达@@
以及
persuade
feature
协@@
Switzerland
visited
非常规@@
selection
800@@
atas
机器人@@
Islam@@
使
bridge
图
奥地利@@
government-@@
Business
dark
这两@@
债券的@@
不知道@@
implicit
审慎@@
表示
1945
布拉@@
reduces
随时@@
包括了@@
号
修复@@
angk@@
writing
大脑@@
挑战的@@
UN@@
integrity
20世纪30年代@@
联邦政府@@
л
角
高效@@
volume
生活水平@@
dynamics
Cha@@
但现在@@
违@@
Green
两国的@@
以下
social-@@
Mis@@
而
表
denied
affecting
果
Mao
judge
不平衡@@
作物@@
奇怪
NPT
已不再@@
stream
cooperate
insecurity
fix
既然@@
atic
Initiative
开启@@
大气@@
怨@@
да
收入和@@
situations
55
或者
inated
债权@@
accelerating
adding
呈@@
在他们@@
under-@@
Hussein
equilibrium
重要性@@
dem@@
市场上@@
chosen
sphere
gal
交给@@
星期@@
先进@@
involves
会使@@
纠纷@@
Somalia
edge
happiness
constitute
首都@@
Lehman
是否能@@
国务卿@@
伐@@
埃塞俄比亚@@
QE@@
then-@@
第四@@
的收入@@
IT@@
talking
界
其中一个@@
萨达姆@@
耶路撒冷@@
种种@@
评级@@
债
suicide
chi@@
丑闻@@
商界@@
熟悉@@
arch@@
扩@@
排除@@
近
至关重要的@@
而其@@
融@@
新德里
巴尔干@@
机遇
巴拉克
vaccine
骗@@
demo@@
enterprise
压迫@@
Lisbon
学校
ineffective
的信息
这表明@@
阿尔及利亚@@
prevention
夸@@
理论
Ser@@
2002年@@
英国人@@
氏@@
Association
不
份额
在一些@@
反对者@@
steady
公共卫生@@
,@@
排放量@@
laureate
complic@@
oper@@
统一的@@
ances
非洲国家@@
Irish
高管@@
Tru@@
relying
sian
nu@@
中等收入@@
treaties
rev@@
phone
的任务
常
也已经@@
显然是@@
组织和@@
eth@@
的一半
商品和服务@@
逆转
代理@@
backs
逮捕@@
他人@@
教皇@@
ga
sion@@
mobilize
排斥@@
Charles
half-century
启@@
促成@@
versus
就开始@@
全球性@@
upcoming
也开始@@
井@@
了一份@@
犹@@
rou@@
扼杀@@
粉@@
有意@@
discuss
trained
cabinet
局限于@@
高出@@
在我们@@
宗@@
遇到@@
司@@
妨碍@@
regulated
Several
沟通@@
ners
弊@@
rejection
worker
那时@@
introduction
清算@@
林
Te@@
unilateral
若干@@
tsunami
催生@@
reinforce
免于@@
人民
bro@@
tization
Gates
贝卢斯科尼@@
hal
和发展@@
组建@@
身份
的未来@@
regularly
Her@@
lowering
让步
appointed
劣@@
下滑
deserve
修订@@
争端@@
command
煤@@
lands
乘@@
likelihood
asing
创立@@
element
perform
followers
п
Thomas
或其他@@
watch
短缺
滥@@
助长@@
金融业@@
北非@@
west
损@@
污@@
Economics
广告@@
speaking
outs
音@@
suit
论文@@
远比@@
村@@
恐慌
的印度@@
全球化
威尔@@
150
4-@@
cope
tro@@
kebijakan
driver
rence
反抗@@
disastrous
follows
药物
崇@@
收紧@@
效的@@
在欧盟@@
勾@@
长期的@@
渔@@
渡@@
享有@@
cast
打造@@
依据@@
野心@@
ation@@
仅有@@
亚洲国家@@
rein
explicit
shortages
RI@@
transportation
explicitly
娜@@
助长了@@
remove
衰@@
撤军@@
选战@@
male
occupied
bid
分布@@
menj@@
appreciate
怒@@
前者@@
implying
embraced
400
anya
的非@@
北京
acceptance
都不是@@
大银行@@
friend
他们是@@
偿@@
乏@@
变为@@
程度的@@
经常账户@@
库尔德人@@
正统@@
TV
油
布鲁塞尔
bills
power@@
宗派@@
选择了@@
Ethiopia
Shi@@
SDR
resolving
telling
PRINCETON
壁垒
express
1990年@@
dire
产生
reser@@
脱欧@@
missiles
0年
子女@@
不仅如此
穷国@@
缩减@@
performing
鲍@@
接收@@
attitude
comparison
使命@@
greenhouse-gas
提案@@
逃离@@
触发@@
components
侵犯@@
finds
Thatcher
的水平
地震@@
根源
lock
1994
二十一世纪@@
​
耶@@
缺
analy@@
寄@@
optimism
器
大选
麻@@
伊斯兰国
Mac@@
儿
峰会
foremost
以使@@
的企业@@
experiences
乎@@
合适@@
久
38
已是@@
phones
Nazi
设法@@
differently
confronting
抨击@@
紧张
simp@@
置于@@
链@@
inter-@@
historically
批准
cla@@
碳排放@@
hurt
献@@
owed
22@@
judiciary
波斯尼亚@@
1970s
Francis
hostile
邀请@@
知识产权@@
gaps
仍将@@
nowhere
eliminated
否则
源于@@
posi@@
叙利亚和@@
掩盖@@
newspaper
围@@
liberty
选举的@@
overseas
在新@@
让它们@@
的努力@@
emphasized
政府将@@
和他的@@
desperately
决不能@@
纪@@
citizen
实力的@@
cri@@
tendency
夏天@@
表面@@
confident
这是个@@
对那些@@
中获得@@
declines
厄@@
有理由@@
charged
敢@@
富国@@
奋@@
应该被@@
locked
duc@@
sen
支持者
可怕@@
hear
网站@@
的信号
ыл@@
温室气体@@
convince
的角色
出来@@
会给@@
film
开发银行@@
G-20@@
ке@@
legally
700@@
这一趋势@@
他说
庇护@@
是可以@@
earned
straightforward
教师@@
如此之@@
Mor@@
EU-@@
测试
competitors
的战争@@
到来
François
bought
量化宽松
hydro@@
ri
旋@@
waves
该组织@@
shaping
Ric@@
较为@@
wellbeing
堂@@
腐@@
新兴国家@@
相比之下
的效果
neighbor
lar@@
亡@@
公众对@@
Brothers
并最终@@
rig@@
younger
е
转移支付@@
这可能@@
普林斯顿
会产生@@
慷慨@@
upaya
machine
公民社会@@
AKP
gt
案件@@
DNA@@
女性
freely
ty@@
资
外交官@@
schemes
层面
占据了@@
ished
expansionary
tran@@
namely
在欧洲
东部@@
sters
推出@@
prevailing
contraction
互动@@
prof@@
倾向
考察@@
break@@
孟加拉@@
partisan
个百分点
tun@@
的态度
那样的@@
经济复苏@@
独裁者@@
皆@@
左派@@
排放
са@@
之后的@@
V
character
colonial
5年
会造成@@
退休金@@
结核病@@
conver@@
confronted
Otherwise
9年
以色列和@@
对立@@
多元@@
eling
的时代@@
唯@@
dynamism
Gordon
估算@@
honor
信号@@
各地@@
representation
collaboration
更低的@@
仁@@
执行
欺@@
采购@@
难道@@
惩罚
heat
bolster
是以@@
弱点
constructive
ills
据说@@
sees
多年来
服
shaped
买入@@
consideration
Nixon
过剩@@
doubts
提名@@
shortage
hundred
diplomats
时期的@@
safer
electric
专家
牌
公共债务@@
foreseeable
住宅@@
upward
lap@@
exemp@@
governed
课程@@
sovereign-debt
来到@@
的形式@@
29
和教育@@
示
墨西哥
hot
disorder
不像@@
阿拉伯之春@@
着手@@
Crisis
speculative
adjustments
hoped
vicious
部长
blow
宫@@
盖茨@@
tan
acquire
night
sign@@
而如果@@
庞大@@
节
的罪@@
mood
dig@@
解释了@@
accounted
只不过@@
sudah
K
ан@@
稳步@@
巴沙尔@@
宣布
congressional
我们现在@@
surrounding
SDGs
近乎@@
麻烦
Ki@@
Summers
抱有@@
Eropa
附@@
all-@@
连接@@
其他国家
CC@@
sistem
polar
焦点@@
道理
来为@@
middle-class
aspects
起义@@
ous@@
aking
并不一定@@
nur@@
抢@@
sek@@
证据表明@@
的实际@@
fossil-fuel
cen@@
fine
DELHI
fron@@
要让@@
troubled
moun@@
抽@@
占了@@
grave
恢复
成熟@@
做出的@@
这些政策@@
自主@@
Doing
托
精力@@
马德里
energy-@@
7.@@
nets
ack@@
ate-@@
诊@@
-to-@@
准备好@@
有过@@
refusal
忘@@
说法
修建@@
尊重
所需@@
事情
Twitter
欧盟国家@@
soared
所取得@@
ei@@
杀害@@
meantime
unrest
捷克@@
1000@@
以色列人@@
len@@
bet
的前提@@
充足@@
ach
步骤@@
异
catastrophic
marks
江@@
іл@@
emphasize
dua
上台@@
ын
我们不能@@
lity
这方面的@@
后续@@
antly
SOEs
美联储主席@@
这需要@@
于是
Tony
家的@@
preferred
供应链@@
英格兰@@
醒@@
阻碍了@@
threshold
ports
strongest
Hu@@
合作伙伴@@
revi@@
abuses
型
供给
模仿@@
shar@@
doubled
relies
媒体
solved
会议上
途径@@
soci@@
单边@@
stems
recognizes
好事
意料@@
ural
treatments
游行@@
称之为@@
不可避免地@@
Peru
card
enables
administrative
事关@@
同意
只需要@@
ug@@
Res@@
偶@@
欧洲央行的@@
摄@@
acknowledged
sky
Sy@@
ме@@
无人机@@
ox@@
pledged
让他@@
尔和@@
mag@@
英国退出@@
飓风@@
蓝@@
孟加拉国@@
revolutions
animal
偏好@@
ities
sanc@@
receiving
experiment
展现@@
margin
边际@@
他们必须@@
regulate
Ter@@
public-@@
馆@@
os@@
柏林@@
第二大@@
在20@@
37
口号@@
induced
grand@@
伊朗核@@
现实的@@
ples
的时期
摇@@
港@@
不平等
determination
伴随@@
dest@@
meltdown
pr@@
factory
促@@
Min@@
位置@@
ski
有一些@@
局势
委员@@
istic
ere
的真正@@
任何一个@@
arrested
精确@@
前苏联@@
closing
Sanders
qualified
无从@@
的人均@@
实在@@
article
atten@@
describe
饥饿@@
愚蠢@@
记
和平进程@@
Program
忘记@@
arity
幕
尼克松@@
也有可能@@
36
criticized
鸡@@
cat@@
career
瑞@@
protesters
知识分子@@
计算
此举@@
考验@@
石油和天然气@@
网
忧虑@@
ін@@
ases
切
DA@@
部落@@
obj@@
不幸@@
刑事@@
千万@@
worrying
Road
议程
步骤
ashing
拔@@
School
资本市场@@
channel
bin
利率的@@
死
log@@
ony
History
指向@@
强力@@
bling
ame
favored
cli@@
与
如果不是@@
否@@
kom@@
struc@@
cs
虑@@
Ukrainian
ты
现在已经@@
бол@@
经济危机@@
investasi
degrees
Amerika
重申@@
29@@
globalized
persist
orders
粗@@
don@@
面向@@
的总统@@
Following
missions
贸易和@@
piece
一个新的@@
毁灭@@
对全球@@
摩洛哥@@
海湾@@
各成员国@@
引用@@
是无法@@
偷@@
散
提出
优秀@@
gun@@
核心
Wat@@
protectionist
rati@@
但没有@@
而当@@
遥@@
app@@
以及在@@
对手
但如今@@
innocent
削减
连任@@
店@@
Ge@@
intentions
永远不会@@
returning
显著的@@
特的@@
浪@@
布什总统@@
雇佣@@
埋@@
将使@@
new@@
有害@@
alive
同时又@@
民意@@
initiated
Roosevelt
deflationary
settlements
Namun
地将@@
模型
implied
在2009年@@
坎@@
屈@@
医疗
obstacle
El@@
reas@@
寿命@@
League
收缩@@
哪个@@
Austria
最近在@@
tering
Fiscal
之路@@
涉@@
plan@@
组合
惠@@
中国和印度@@
Cam@@
研究所@@
强调
令人惊@@
governmental
巴基斯坦的@@
Next
占GDP的@@
裁决@@
restored
concentration
eigh@@
罗斯福@@
能带来@@
身处@@
intermedi@@
要
的责任
闻@@
pull
应对
od
反思@@
declaration
ен
主席
cultures
央行行长@@
意外@@
institu@@
忽略了@@
宣言@@
莫过于@@
城
Governor
益
ail
年增长率@@
筹集@@
anticipated
围绕@@
疲软
经济体的@@
密集@@
席卷@@
high-income
通胀率@@
本应@@
细节@@
他们可以@@
开采@@
immense
迁@@
withdraw
敌人@@
内在@@
描绘@@
重要性
还包括@@
location
forecasts
渠道
recorded
underpinned
权利的@@
tradable
恐怕@@
advocate
就不@@
ko
successes
政策制定者@@
邦
nutrition
闲@@
金融
人类的@@
emo@@
日本人@@
Oil
际@@
irrelevant
听到@@
holdings
findings
有力的@@
前提@@
prisoners
earthquake
改革和@@
采取措施@@
tik
是一位@@
这对于@@
surface
Globalization
stabilizing
frequent
ү@@
wards
transatlantic
政坛@@
斯的@@
银行系统@@
assumptions
deemed
利用
效益@@
ligh@@
在阿富汗@@
bias
governor
很高
islands
单
holders
十九世纪@@
糖@@
之处@@
刺激
核武器的@@
int
奉@@
忍受@@
仰@@
伙伴关系
ku@@
韦@@
convincing
sively
capitalist
预言@@
维和@@
辩论
人物
区的@@
生育@@
destabilizing
Market
functions
interesting
贩@@
诞生@@
注意@@
uri@@
留下@@
兄弟@@
specifically
跨越@@
ash
选择的@@
Industrial
的时@@
pride
现在是@@
迄今为止@@
降至@@
状况的@@
产权@@
别无选择
熟@@
找不到@@
Ronald
tin@@
洲@@
Prize
问题是
MADRID
经济学家
exacerbated
总理
家们@@
terrible
the-@@
vari@@
岁的@@
奥
altogether
换取@@
供应
作用的@@
exploit
高收入@@
英国首相@@
aker
股价@@
但是在@@
法西斯@@
合理
行使@@
将于@@
的前景@@
混合@@
Brown
sul@@
mutually
oth@@
Labor
Rom@@
铁路@@
train
成立
hedge
pollu@@
誓@@
minimize
emotional
酷@@
不顾@@
民选@@
春@@
并且在@@
undertake
通
人道@@
和宗教@@
定居@@
也对@@
在这里
来讲
是一场@@
IP@@
parallel
stuck
BA@@
concessions
这些
correc@@
camps
pays
国际贸易@@
isn
ise
commis@@
是对的
ounded
欧元区国家@@
pledge
officially
losers
44
complexity
转换@@
没什么@@
Square
reflecting
但随着@@
ны@@
解体@@
Czech
aling
舒@@
affects
revival
roots
Report
Abenomics
righ@@
干扰@@
打算@@
长久@@
з
管道@@
低迷@@
已开始@@
ungan
二氧化碳排放@@
life-@@
predecessor
美国将@@
契约
赌@@
蔓延@@
enduring
增长了@@
defending
最贫困@@
象
govern
dioxide
wee@@
second-@@
但仍@@
这两种@@
obtain
爱国@@
美国剑桥
一个更@@
科
突破
政治和经济@@
regain
Day
entering
每个人@@
多数
应付@@
候选@@
极右翼@@
cohesion
gun
解除@@
项
雄心勃勃@@
兴趣
Mc@@
大国
从而使@@
苹果@@
mired
政治上@@
Institu@@
bargaining
薄@@
极端分子@@
很快就会@@
资金的@@
ceiling
accumulation
Time
央行
这导致@@
player
defeated
正当@@
assuming
骨@@
及时@@
在2010年@@
anim@@
辈@@
gn@@
ratings
ide
贷@@
就可能@@
一边@@
atkan
得到的@@
Sec@@
ades
existential
Freedom
richest
暴跌@@
fraction
下台
monetary-policy
parity
闹@@
这一比例@@
诺贝尔奖@@
政府应该@@
为基础@@
classic
Above
providers
赋@@
worthy
不断地@@
抵制
enjoyed
unified
必将@@
1979年@@
金融危机
H
在于
direc@@
tionary
Protocol
dia
Shinzo
的一系列@@
extremist
取得成功
探索@@
wil@@
提高到@@
Kerry
Martin
ken
unexpected
ought
anemic
football
因为在@@
最高的@@
three-@@
adults
Au@@
规模的@@
约
stations
段时间@@
Nicolas
从前@@
迹象@@
就有可能@@
层
camp
愤@@
post
节约@@
кө@@
院
历史学家@@
reporting
tourism
lif@@
My@@
alls
delivering
capital-@@
tiny
级
马
starts
碎@@
声明
灾难性@@
诉@@
indicates
multinational
有益@@
的中@@
Whereas
illness
文化的@@
了这些@@
但从@@
注重@@
孕@@
of@@
gri@@
sist@@
absorb
生命的@@
zones
lt
性质
达成的@@
决心
crop
Ah@@
沿@@
媒体的@@
增加到@@
实
在所有@@
观念
lawyers
立法
基础设施投资@@
arguably
受
的生活@@
5年的@@
来源于@@
uranium
的支持者@@
外交政策的@@
farm
另外
仿@@
都对@@
rers
恐怖主义的@@
wife
和平与@@
区域
blamed
deleveraging
定价@@
respected
通信@@
措施的@@
speculation
officers
某一@@
革命的@@
相同的@@
否定@@
而后@@
就是一个@@
借口
意味着
devoted
面积@@
诱惑@@
假设
Fi@@
走
东京
维尔@@
shor@@
的数据
proof
克的@@
挑@@
总结@@
金砖国家@@
受害者
俄国的@@
耻@@
urbanization
temporarily
adjusted
建立
符@@
intention
棘手@@
Sol@@
Stu@@
还应该@@
少的@@
mixed
gan
长时间@@
尘@@
一如@@
又一次@@
相关
上升到@@
split
民主国家
典型@@
过多@@
许
全面的@@
Ultimately
团体
resistant
和文化@@
忠诚@@
接近于@@
cure
一支@@
疏@@
覆@@
花了@@
温室气体排放@@
consent
sheet
broke
最严重的@@
贸易协定@@
ential
街@@
洋@@
rises
precedent
声音
diagnosis
preferences
Apple
permit
打开@@
轻松@@
在2015年@@
Ap@@
31
就业机会@@
从来没有@@
气温@@
密
是非常@@
因为他@@
stic
特朗普
可持续性@@
穆斯林兄弟会@@
Food
attend
境
的反应
Lee
bel@@
gross
remote
La@@
winners
rer
纠@@
bli@@
保持着@@
Science
再平衡@@
传染@@
最具@@
dating
号召@@
在最近的@@
completed
乡@@
array
同等@@
мен
partial
tied
appealing
返@@
clinical
遵@@
附近@@
来解决@@
是全球@@
不止@@
现行@@
G-8
biology
轰炸@@
堪@@
白人@@
异常@@
shrinking
忽视
讯@@
ury
no-@@
seat
conce@@
socially
expert
settled
baik
Bra@@
熊@@
瓦
的需求
ambition
lift
世贸组织@@
35@@
checks
国内
拘@@
named
蔓延
前总理@@
比赛@@
彼@@
隐含@@
ble@@
经
这不仅@@
势力的@@
但对于@@
narrow@@
纯粹@@
Vic@@
近年来@@
hike
新增@@
plausible
埃及的@@
trade-@@
推动
把它@@
harsh
其实是@@
Hu
bloc
经典@@
tech
兹
ore@@
看到
ор@@
席位@@
tobacco
达成一致
artificial
landing
体现在@@
演变为@@
nom@@
contained
在内
更广泛@@
经济学
五分@@
小型@@
马克思@@
ration@@
pon@@
环境的@@
竭尽全力@@
BERLIN
民意调查@@
法规@@
demonstrations
lau@@
fashion
origin
柬埔寨@@
Ham@@
ave
resilient
predic@@
Ara@@
电话@@
pha@@
攻@@
困扰
成长@@
望
选项
tem@@
柯@@
alities
是欧洲@@
voices
dian
强国@@
Crimea
long@@
商业银行@@
无辜@@
举办@@
station
已被@@
公债@@
赞助@@
驱@@
时间的@@
旅行@@
授@@
污染
临床@@
Within
fairness
腐败的@@
Park
extra@@
在一起@@
拉斯@@
烂@@
sil@@
Movement
高层@@
市
triumph
veto
储备
Doha
ination
就此@@
God
predecessors
希腊和@@
传播
更能@@
民主制度@@
的后果
WWII
landscape
不想@@
covered
虐待@@
sending
从而让@@
Corporation
malaise
内战
顽@@
patent
responding
学的@@
塑造@@
狱@@
被称为
高企@@
可以
exclusively
scre@@
constantly
持有的@@
会成为@@
重复@@
accelerated
NP@@
过分@@
48
FDI
坏
国际货币@@
forests
magnitude
掌权@@
二战后@@
概@@
流离失所@@
另一方面@@
guard
和长期@@
Ri@@
成千上万@@
表面上@@
Qaddafi
死亡率@@
加入了@@
2012年
engaging
indebted
teams
落后@@
dered
多年来@@
南非
wing
可
ғы
一点
社会保障@@
变暖@@
Neither
重点
广场@@
念@@
ust
幼@@
普
tribal
entrenched
着眼于@@
hospitals
lacking
逻辑
33
rent
这是因为@@
我们都@@
occurring
霸权@@
交流@@
Pact
2008年金融危机@@
flaws
膨胀@@
text
的危险
不利于@@
captured
大宗商品@@
und@@
活力@@
岗位
出手@@
қар@@
约为@@
seize
attacked
指数
blind
威胁的@@
hun@@
gen
美联储的@@
凭借@@
rivals
先例
的地位@@
spiral
unacceptable
breakthrough
汽车
割@@
solely
rebuild
字
diminished
唯一一个@@
伊拉克和@@
passing
和非@@
alistic
poll
再分配@@
消费者
forever
国际金融@@
6年
hear@@
mun@@
distributed
beberapa
拨@@
重视@@
higher-@@
所有人的@@
privatization
Recession
carbon-@@
逃避@@
grows
侧@@
neighborhood
distinct
短短@@
关注的@@
collateral
vested
这正是@@
押@@
wo@@
和世界@@
Fre@@
过的@@
都是如此
作家@@
voluntary
颇具@@
通讯@@
rap@@
入盟@@
AN@@
answers
civilization
masyarakat
serves
牧@@
虫@@
一次
并无@@
球
restra@@
outbreak
pre-crisis
丁@@
黑暗@@
决定了@@
enrichment
较低的@@
performed
事件的@@
羞@@
的时刻
地下@@
儒@@
之势
及其他@@
Do
主持@@
单独@@
deb@@
enlargement
formation
的机会@@
拆@@
Out@@
professionals
温和的@@
fications
同性恋@@
images
剩余@@
操@@
持续
alleged
经理@@
上个月
Gi@@
将为@@
ani@@
focuses
改造@@
学习
祖国@@
是错误的
协调
worries
drawing
obligation
zy
制定了@@
Del@@
结盟@@
toc@@
影响了@@
自由派@@
Sub-Saharan
还不如@@
以外@@
instrument
短暂@@
signals
军事行动@@
回忆@@
widening
萨科齐@@
系列@@
raw
多大@@
的问题上@@
平台
34
sangat
探讨@@
代替@@
的基础上@@
pemb@@
各州@@
lets
沉重@@
--@@
的行为
简而言之
devi@@
mig@@
愿望@@
medicines
政府支出@@
crow@@
Already
cooperative
逢@@
效仿@@
水和@@
漫@@
bahan
甚至可能@@
提交@@
不起@@
据
Mark
增进@@
作者@@
了大量@@
Б@@
hegemony
绑架@@
黎@@
与欧盟@@
减免@@
边界
Ocean
Valley
The@@
始@@
precise
竞@@
悲剧
欺骗@@
涉及到@@
这一事实@@
ның
西藏@@
ле@@
顽固@@
维持
及
拖延@@
扩散
取
进一步的@@
ass@@
deployed
Five
谨慎
佛@@
宜@@
和其他国家@@
提供了一个@@
architecture
provoc@@
自信@@
在当今@@
基准@@
Bal@@
制衡@@
凶@@
grade
tolerance
median
availability
check
继任者@@
1993
总量的@@
公民的@@
全民公决@@
觉
全球
decent
suggesting
或许是@@
¥
tariff
希望的@@
的一部分@@
philosophy
Mit@@
优惠@@
诗@@
一词@@
无需@@
愿景
reb@@
深层次@@
firmly
虎@@
admit
Simply
的作用@@
32
43
nee@@
烧@@
denominated
炮@@
bust
carrying
sumber
子的@@
迅速
败
lation
bailouts
英国退欧@@
消失@@
roo@@
250@@
接种@@
的大量@@
gent
似乎已经@@
headlines
爆@@
故事
tionally
威慑@@
intellectuals
诚实@@
来看@@
mothers
燃烧@@
tide
Kar@@
epidemic
fishing
livelihoods
全力@@
applies
entails
隐藏@@
Col@@
过去十年@@
SDR@@
人力@@
起草@@
耐@@
朝着@@
contagion
fran@@
采纳@@
waters
南方@@
缓@@
的经济增长
1980年@@
dik@@
insur@@
数量的@@
很低
所作所为@@
liberalism
一道@@
sum
离
阳@@
Infrastructure
polio
harmon@@
40年@@
del
市场经济@@
就被@@
无法获得@@
捷@@
Article
compensate
excluded
态
有所下降
舆论@@
一段@@
饭@@
fer@@
insurgency
arrest
判决@@
去年的@@
aircraft
其余@@
几十年来
shortcomings
箱@@
秘鲁@@
reasonably
刀@@
所提出的@@
今年
kesehatan
显示出@@
ір@@
persu@@
founding
steel
主动@@
highlighted
post-war
deli@@
JP@@
Algeria
绿@@
disintegration
阻止了@@
抵押贷款@@
infectious
周围@@
多次@@
利的@@
ashed
富
profitable
伤
轻易@@
榜@@
logists
frustration
odds
BC
ministry
nutri@@
始终@@
但
而没有@@
中东和@@
gene
我们希望@@
aked
storm
做好@@
spoke
劳动力
它们是@@
窃@@
浓@@
ther
confirmed
承诺的@@
Ji@@
新技术@@
virtual
generals
议题@@
medium
temperature
基因组@@
Bolivia
需要在@@
IMF的@@
奥斯@@
同时也是@@
bol@@
Economists
滞@@
7年
resi@@
居住@@
para
Sharon
僵局
temperatures
邻国的@@
喀@@
Catholic
ner@@
周
Ban
停火@@
connection
CI@@
laid
demise
竭力@@
数以@@
she@@
也就是说
低成本@@
crisis-@@
统一
So@@
ek@@
导
以前
Mul@@
reinforcing
securing
Making
建国@@
angry
所得@@
让
你可以@@
创新和@@
clean@@
overwhelmingly
政府债券@@
欧元区成员国@@
Churchill
能获得@@
newspapers
收到@@
ла@@
涌入@@
重启@@
physici@@
pact
们的@@
formally
温度@@
ған
腾@@
Fourth
说明了@@
辩@@
struggles
letter
他信@@
Alan
Africans
quarters
ased
攀升
й@@
就是明证
bargain
对欧盟@@
被广泛@@
high-quality
个人的@@
运
陷于@@
Islands
雇用@@
教育程度@@
draft
stone
CE@@
victim
stick
在伊拉克@@
其中一些@@
税的@@
游戏
形成
故意@@
比例
研究表明
以巴@@
Iraqis
并以此@@
领导人必须@@
大学
memiliki
Mat@@
重重
赔@@
commission
的特@@
rever@@
unknown
长远@@
thousand
炸弹@@
dysfunctional
courage
buildings
本土@@
orderly
累积@@
推向@@
3年
失业率
roc@@
伦
taining
涵盖@@
尽快@@
prote@@
NGOs
付出了@@
recovered
英国脱欧@@
sis
本质@@
选票
IPCC
destroying
揭露@@
shut
ounds
psycho@@
页岩@@
货币和@@
sake
西班牙和@@
secre@@
很大一部分@@
议
BRUSSELS
一大@@
promoted
派遣@@
相同
bureaucratic
alle@@
在我@@
创造出@@
狭@@
焦虑@@
热
衍生品@@
彩@@
灯@@
row
乳@@
坎布里奇
looming
transmission
如果说@@
Community
置
小布什@@
阿拉伯人@@
众
公私@@
立
的竞争@@
advisers
所做的@@
damaged
midst
耗@@
1年
运营@@
为自己@@
计的@@
之一的@@
一致的@@
芬兰@@
友好@@
产
董事@@
丰富的@@
pound
excessively
toll
观察
却不@@
格林斯潘@@
同盟@@
bon@@
ailed
free-market
balance-sheet
伏@@
intent
cies
初级@@
消费的@@
tang@@
原油@@
aring
Morocco
就不可能@@
领土
规则和@@
基地
加深@@
trajectory
hidup
正确地@@
1996
industrialization
Declaration
表明了@@
strict
国际法@@
feared
代表的@@
吸取@@
上海@@
Sur@@
won@@
更少@@
遏制
起着@@
vac@@
通常是@@
bility
理念
掌控@@
defining
纯@@
Gen@@
厌恶@@
对这一@@
aspect
胎@@
single-@@
Constitutional
野蛮@@
等国家@@
如
与欧洲@@
慢性@@
purely
局的@@
的利益
籍@@
引擎@@
800
ill-@@
贸易的@@
勇敢@@
agents
玻利维亚@@
Poli@@
some@@
资本流入@@
辆@@
不过是@@
霸@@
om
的关系
derivatives
宣称
美洲@@
培训
在过去十年@@
骚@@
documented
小国@@
卫星@@
sports
期的@@
乍@@
guar@@
有史以来@@
挑战是@@
大使@@
stabilization
解决办法
也存在@@
不难@@
储蓄率@@
1.3
所有国家@@
归根结底
在内@@
Web
跑@@
不及@@
不可持续@@
filled
植物@@
空中@@
只是一个@@
并对@@
accord
而这种@@
补
luck
prudential
one@@
sl@@
adequately
秩序的@@
big@@
aggression
的暴力@@
acc@@
税率
疗@@
Israeli-Palestinian
注册@@
association
normally
资格
金正恩@@
社区
爱尔兰
torture
该协议@@
浪潮@@
女性的@@
数学@@
spreading
叛军@@
AL@@
turing
BO@@
十二@@
地方的@@
金融系统@@
Consensus
occurs
根
choosing
whereby
Is@@
教
像是@@
几十@@
rebels
奥运会@@
Rouhani
discovery
proud
aman
国内政治@@
下一次@@
海
Capital
financially
behave
加强
missed
尼古@@
asylum
电
cold
novel
在这种@@
责@@
尊严@@
traders
尊@@
low-cost
核武@@
丢@@
psychological
investigation
监管和@@
三分之一@@
til@@
乐
8.@@
Arafat
duty
克斯@@
它可以@@
特和@@
我们也@@
forget
bic
动态@@
规划
雷曼兄弟@@
限
engineers
预料@@
deduc@@
讽刺@@
糟糕的@@
会出现@@
半岛@@
路线@@
它还@@
放眼@@
整整@@
宁@@
compliance
dro@@
Strategy
产业
liability
宇宙@@
alo@@
就业岗位@@
entity
chairman
usi
6-@@
accepting
一件@@
Empire
恶化的@@
是正确的
shot
declare
Senator
配额@@
机遇@@
还不到@@
龄@@
运作
件
杀死@@
监@@
很长@@
犯罪
dying
事态@@
韩国和@@
downs
被人@@
indispensable
没有一个@@
倡导@@
Thaksin
的权力@@
sor@@
gro@@
ordered
display
quali@@
旅游@@
commentators
沙龙@@
expectancy
耗费@@
ation-@@
决定性@@
议会
提供资金
run-up
生存
soil
土耳其和@@
conservatives
单纯@@
prevail
情感@@
的关系@@
kerja
股票
Em@@
Greeks
冻结@@
财政和@@
所需要@@
类的@@
ыс@@
discourse
39
cycles
roles
类似
鲁
units
honest
aff@@
寡头@@
萧条
shortfall
名为
总统候选人@@
巴以@@
Juncker
远低于@@
characteristics
guidance
盗@@
分担@@
tomorrow
forgotten
certainty
达成了@@
requirement
的大部分@@
promotion
frac@@
口号
reading
带有@@
他们也@@
Does
Gra@@
sy
suspicion
scarce
inequalities
highlights
drove
tragic
entitled
劳动者@@
hostility
必需@@
染@@
nati@@
著作
驾@@
opposing
之地
notable
biological
制止@@
Sino-@@
的自@@
负债
增长率
barrel
的地缘政治@@
该党@@
生产商@@
indicated
戒@@
如果中国@@
maritime
给我们@@
Sometimes
ия@@
缺口@@
offs
星
director
抓@@
insisted
benefiting
指责
Markets
detailed
了吗
evolved
preparing
TOKYO
distinction
世界贸易@@
对美国的@@
一段时间@@
还有其他@@
disruption
ected
тар@@
paradox
社会主义@@
factories
安
暖@@
抬@@
Brazilian
collabor@@
和债务@@
孩子
雪@@
confined
况@@
是其@@
家和@@
甚至连@@
占全球@@
saat
无限@@
海岸@@
容
ough
notes
mengh@@
策@@
sing@@
inations
burst
pool
桥@@
有所不同
半个世纪@@
deepen
聪明@@
刺激了@@
吸引力@@
fan@@
角度
穆斯林
到目前为止@@
这部分@@
cam@@
bloody
stly
空
racial
optim@@
结构性改革
如今的@@
tent@@
reconstruction
comparative
扩大了@@
范围的@@
PBOC
ne
long-run
新政府@@
devices
回事
depressed
大多数人@@
tight
奇怪@@
舰@@
distinguish
想到@@
қ
rela@@
ads
十年代@@
connections
进一步恶化
城市的@@
Facebook@@
哲学@@
我们有@@
源自@@
job@@
tier
lest
民族
的新闻@@
elderly
ce-@@
斯基@@
connect
在国家@@
stemming
宣言
州和@@
消费者的@@
TO@@
的可@@
prevailed
到来@@
一片@@
决议
埃及和@@
Pop@@
胜
1945年@@
Air@@
disarmament
加速
葛兰@@
equities
生态系统@@
Cup
popul@@
刺@@
dom@@
located
试图通过@@
BM@@
召@@
疾@@
穷人
wit@@
attracted
arrived
起来的@@
可能性
理论上@@
bombing
exceeds
beliefs
Sri
和中@@
formul@@
外交政策
亏@@
tum@@
vice
正在经历@@
局限@@
在英国
月份@@
外国人@@
周期性@@
总统大选@@
人均收入@@
impression
person@@
的世界
中央政府@@
arian
移民和@@
roll
ose
的关键
订@@
就业机会
entities
造成的
oli@@
侵蚀@@
cho@@
Bosnia
ді
针@@
vis-à-vis
consolidate
adhe@@
放弃了@@
汲取@@
Wor@@
equipped
吸引了@@
lo
诉讼@@
推高@@
拥有的@@
disruptive
申@@
宝@@
rep@@
全新的@@
随后的@@
杂志@@
以致@@
反对党@@
exporting
Bri@@
戏剧@@
定义
ancy
显而易见@@
非正式@@
CEO@@
stages
在某种程度上@@
portfolio
圆@@
更愿意@@
apan
妄@@
相当
迎接@@
液@@
Christians
kar@@
osity
eventual
抹@@
Abu
traditions
巨型@@
fle@@
Reform
dil@@
Debt
指挥@@
professor
激进的@@
allocated
最后的@@
San@@
reference
职位
的危险@@
社会党@@
sub-@@
危机前@@
blocked
班
所必须@@
tasks
额外的@@
65@@
愚@@
生产率增长@@
utili@@
朱@@
CD@@
1967
卡塔尔@@
competent
democratically
同
surprised
尽管有@@
政治领导人@@
选民的@@
戏@@
血腥@@
Add
灰@@
ousness
经受@@
rail@@
2010年
提
Si@@
试验
辛格@@
帝国
1999年@@
diminishing
共和国
7-@@
辱
产量
1998年@@
回
竞争的@@
使命
Charter
Roma
切断@@
芬@@
太多的@@
敲@@
oud
归因于@@
崛起的@@
体现了@@
崩盘@@
其自身的@@
反弹
赫尔@@
毕业@@
ney
循环
下去@@
low@@
kan@@
penduduk
unpredictable
继续
vacuum
ind
一个世纪@@
是不够的
recommendations
ays
列
read@@
受困@@
cy@@
对伊朗@@
完全是@@
2008-2009
Do@@
substitu@@
俄罗斯人@@
resentment
method
在任何@@
ра@@
AT@@
endorsed
calm
Kennedy
after@@
揭@@
value-added
coll@@
violations
代表着@@
dimension
测量@@
限制了@@
Marine
飙升@@
600
实现这一目标
取消
势头@@
结构改革@@
prosecu@@
ories
loyalty
unclear
carries
190@@
predictions
ration
更新@@
好消息
ake
塔
accordingly
状@@
即
急需的@@
McKinsey
限制在@@
harmful
类型的@@
0-@@
ethics
农场@@
ological
捐赠@@
卷入@@
minimal
recessions
担保
kilometers
dge
极权@@
是否能够@@
prone
的两@@
计价@@
forming
判断
言论
plac@@
0年代
共和党人@@
Di
Mohamed
因素是@@
的其他@@
dozen
tempted
Conservative
影
gases
Cambodia
援助的@@
统治的@@
罗马尼亚@@
应用
constitutes
monitor
澳大利亚
小心@@
实验室@@
凯恩斯主义@@
表现得@@
朝鲜
腰@@
controlling
Syriza
soaring
勇气@@
文章
Project
bondholders
折磨@@
drivers
Henry
双方都@@
approaching
幸运@@
经济政策@@
抗
庆祝@@
precipit@@
独特@@
补偿
的严重@@
财政紧缩@@
而那些@@
烈@@
offensive
bar
Mel@@
的核心
justification
vent
superpower
ze@@
Ph@@
Far
ham
traffic
teknologi
cultiv@@
retro@@
error
NG@@
Few
倒台@@
几十年来@@
实现的@@
downside
mid@@
ocean
缺口
又是@@
比美国@@
250
records
范畴
妇女
倡议@@
AIIB
愿
借款人@@
redistribution
违反了@@
condemned
可以说@@
跨大西洋@@
authors
militants
Secretary-General
ki@@
郎@@
警告说
distance
军备@@
营
forest
finished
punishment
differ
题
unite
pled
hap@@
quar@@
usan
Cairo
premium
也为@@
成的@@
debtors
子孙后代@@
午@@
本质上@@
oversight
当我们@@
NAFTA
缺失@@
avi@@
定居点@@
Better
在亚洲@@
对于那些@@
itable
profile
Panel
在印度@@
石油公司@@
把自己@@
flu@@
makers
并不意味着@@
At@@
alling
wins
bles
irresponsible
manufacturers
经济衰退@@
听起来@@
pun@@
迹
ық@@
愿望
光是@@
难度@@
heading
免
行列
漏@@
帐@@
4年
的信心
potent
谋杀@@
1930s
科研@@
物理@@
俱乐部@@
成为
智慧@@
Iranians
差别@@
代人@@
pak@@
强化
每次@@
恰当@@
sacrifice
千年@@
减
李@@
民兵@@
tremendous
ental
medium-size
房产@@
CO@@
safeguard
growth-@@
版
的经济学家@@
将给@@
根除@@
unpopular
kep@@
但欧洲@@
多极@@
公众的@@
grasp
浓缩@@
restraint
impede
knowing
曾在@@
succession
representing
的战争
庄@@
解读@@
防卫@@
管理的@@
的经济学@@
革@@
和无@@
堆@@
fed
几天@@
esp@@
Nation@@
灾难性的@@
Sunnis
Jacques
Asia-Pacific
罢@@
college
法律和@@
卓@@
回到了@@
令人震惊@@
经济和社会@@
demonstrates
Rwanda
с
申科@@
Koreans
金融市场的@@
solving
获胜
Viktor
简直@@
bun@@
Tar@@
temptation
找到了@@
收回@@
hak
民主党
NA
进口
dismissed
能源和@@
Throughout
选项@@
Chief
liberals
exceptions
强烈的@@
Tibet
drag
tex@@
所有这些都@@
sla@@
其所@@
完善@@
rally
stakeholders
pick
的行动
zz@@
harga
将达到@@
弗朗@@
实用@@
该公司@@
斯里兰卡@@
ahan
supply-side
是很@@
Finland
享@@
uk
轻
warfare
成立了@@
信奉@@
正确的
巴
issuing
资本流动@@
val@@
anism
这样一种@@
许可@@
9-@@
能量@@
为基础
meg@@
human@@
前进
本国的@@
妙@@
估算
well-being
ample
国防部长@@
一起
stagnant
Age
Special
ured
些
bran@@
skepticism
symptoms
隔离@@
国际货币基金组织的@@
delayed
美国人
EM@@
assault
吓@@
boundaries
虚假@@
my@@
姿态@@
farm@@
中位@@
protracted
斯坦
这一过程@@
storage
taught
scenarios
pes
君主@@
漫长@@
竞争性@@
和企业@@
warnings
Singh
签署了@@
脆弱的@@
Her
socialist
卢旺达@@
苦难@@
解决问题
request
呆@@
Together
reward
Reinhart
shale
Stra@@
随之而来的@@
增税@@
致死@@
PE@@
collection
Chirac
旦@@
他们应该@@
adaptation
九十年代@@
杀戮@@
真相
抗议
IF@@
basket
私营部门@@
助
是如此@@
ov@@
第五@@
战争中@@
年轻人
舍@@
antibiotics
distress
village
bearing
总统选举@@
packages
弹
推动了@@
让它@@
的说法@@
育@@
设想@@
社交媒体@@
acquired
放大@@
另外一个@@
往往是@@
钻@@
教徒@@
ма@@
Medvedev
absent
撒哈拉以南非洲@@
eu@@
止
莎@@
就职@@
弱的@@
semi-@@
贯@@
最有可能@@
亡
minor
营养不良@@
想想@@
不可或缺@@
照
压力的@@
国界@@
一轮@@
with@@
consume
肥胖@@
遗产@@
inging
gg@@
igh@@
工作者@@
轨@@
通过了@@
找出@@
增加的@@
cement
蛋@@
seg@@
Spe@@
sole
catch
tely
ranking
颗@@
证实@@
不安
忠@@
强化了@@
medium-term
lev@@
有利
1,000@@
己@@
eve
湾@@
大宗商品价格@@
rest@@
j
深受@@
的道德@@
Belgium
AS@@
42
精神病@@
经济和政治@@
satisfaction
来进行@@
Obviously
勤@@
accumulated
SI@@
拍@@
总裁@@
经济表现@@
restricted
这一方针@@
层次@@
大为@@
惊人的@@
脚
放
维亚
志
搜索@@
norm
和反@@
diabetes
Abdullah
Dodd-Frank
让我@@
根本性的@@
fraud
embedded
生产率的@@
在2012年@@
发挥作用
不公平@@
的价值@@
ahkan
lying
失望
actor
geo@@
efficiently
劫@@
ep
countless
overnight
civil-society
discontent
与俄罗斯@@
漏洞@@
但这样的@@
timing
方案的@@
待遇
misleading
张
资本和@@
以外的@@
枚@@
将从@@
肤@@
°
post-crisis
年轻的@@
意识到
frameworks
的重要性@@
但尽管@@
实体
撞@@
automatic
any@@
边缘
亚太@@
将这些@@
LA@@
适用@@
ба@@
handed
塑料@@
pil@@
有许多@@
拒绝了@@
布雷@@
operational
sustaining
CN@@
征税@@
disparities
儿子@@
昂贵@@
引擎
fighters
box
amid
临@@
封闭@@
这一数字@@
带来巨大的@@
钢@@
贸易伙伴@@
Future
reversal
infections
私有化@@
奉行@@
借此@@
三分之一
interference
拒绝接受@@
sch@@
引发的@@
在中东@@
多重@@
帝@@
很好地@@
polarization
Royal
sav@@
uh
微妙@@
兴奋@@
在这里@@
胡锦涛@@
deposit
undermines
执法@@
的威胁@@
3,@@
彻@@
群
的一致@@
赏@@
emis@@
beat
macro@@
Fun@@
imported
天然@@
calculations
assumes
two-state
关押@@
有一种@@
阿富汗的@@
并
警方@@
debtor
í@@
更低
recall
fault
赎@@
力地@@
gies
crude
并且
т
消息
哪种@@
钟@@
degradation
substitute
支持率@@
排除在@@
suffers
阵营
中心的@@
facility
工作岗位@@
耀@@
飙升
stry
一下
意义的@@
聚集@@
47
childhood
食品
reveal
经常项目赤字@@
ала@@
都已经@@
亿欧元@@
采取的@@
高科技@@
中小@@
疫苗
运行
显著
长期利率@@
昂贵
执政的@@
的利益@@
BEIJING
Du@@
hesit@@
ari
附加@@
rants
化为@@
appe@@
德国总理默克尔@@
恶劣@@
越发@@
沙特阿拉伯
正处于@@
Again
闭@@
契@@
pipeline
vary
applications
relevance
1973
有多少@@
恶
顶尖@@
Ken@@
掩@@
疯狂@@
myriad
鼓@@
不够
rin@@
facilitating
Either
advancing
使他们@@
功能
eds
accident
distribute
rents
broad@@
政客
engines
upper
lender
hon@@
CCP
策
hum@@
非政府组织@@
文件@@
bureaucrats
略有@@
朝鲜半岛@@
化学武器@@
4年的@@
亚美尼亚@@
加拿大
守
列为@@
se-@@
其实
application
WHO
的发展
ambi@@
Banks
干旱@@
夸大@@
Swiss
伙@@
shel@@
graduates
预示着@@
州的@@
材@@
居住在@@
1年的@@
genuinely
onia
fire@@
实现这一@@
AD@@
换
神圣@@
的德国@@
100,000
perceptions
sounds
在2011年@@
personnel
满意
viol@@
ita
回顾@@
一体化
Pope
的说法
­
摧@@
Fran@@
陷@@
的要@@
缓冲@@
savers
但由于@@
hom@@
布朗@@
结
剂
眼下@@
花在@@
illiberal
慢
开创@@
lusion
发展和@@
军事干预@@
row@@
Davos
peri@@
uphold
superior
内部
外来@@
HAVEN
压低@@
ball
而不仅仅是@@
晚
我们知道@@
与以色列@@
基金会
illusion
下降的@@
venture
策划@@
之不@@
孔@@
的现实@@
merit
行事
ouse
boosted
Dec@@
ingan
而后者@@
econom@@
encing
的地方@@
unification
phrase
越来越大
在这种情况下
政界@@
May@@
已经有@@
进了@@
营造@@
legitim@@
额的@@
EA@@
卡特@@
盲@@
repay
了近@@
研究所
exacerbate
为基础的@@
或许会@@
措@@
衰落
remarkably
输出@@
iness
Almost
GDP比率@@
accomplished
spoken
alarming
宪@@
护
合适的@@
前途@@
Geneva
enthusiasm
出席@@
短期内@@
translate
deterrence
reforming
中止@@
种族灭绝@@
lalu
希腊政府@@
印象
回避@@
相当于GDP的@@
这一问题
villages
关税
top@@
素
mp
引起的@@
不已
新加坡
province
注意
插@@
器官@@
从而导致@@
名列@@
估@@
Yanukovych
小时
和地区@@
平息@@
紧张局势@@
注意到@@
Char@@
邻国
巴西和@@
直面@@
affir@@
maximize
让其@@
Microsoft
我所@@
scandal
运动员@@
关
逊
mur@@
透明度@@
exclusive
避@@
justi@@
stat@@
2011年
spreads
忽视了@@
眼
新兴市场国家@@
Fin@@
rats
也让@@
yer
Action
开发
cler@@
观察者@@
屋@@
TTIP
sus
hence
hidden
may@@
doub@@
信念@@
Macron
的压力@@
hire
但事实@@
甲@@
ie
将面临@@
audience
知名@@
欧洲银行@@
本次@@
希拉克@@
Ob@@
重要作用
separation
朗@@
般的@@
精心@@
用水@@
焦@@
留给@@
便宜@@
的力量
192@@
审视@@
我们正在@@
10-@@
参与了@@
bulk
scar@@
危险的
printing
的潜在@@
西
金砖@@
独一无二@@
条约的@@
和服务@@
reportedly
skeptics
一是@@
inputs
inya
unusual
servic@@
市场和@@
neuro@@
distortions
rice
锡@@
respective
资本的@@
一步@@
containment
意图@@
Index
presumably
automatically
subsequently
Kon@@
包
都
ant@@
negotiators
asa
7年的@@
的措施
之下@@
同一个@@
海平面@@
社团@@
ov
究@@
治
目睹@@
reckless
是什么
一年
控
imbalance
pione@@
握@@
绑@@
一方@@
维持在@@
会计@@
hospital
ade@@
可以肯定
watching
99
哲学家@@
biodiversity
安德@@
gues
最严重@@
ын@@
pertumbuhan
transforming
缔造@@
glob@@
privacy
国集团@@
pit@@
3.5
Rem@@
梦
US@@
democratization
Silicon
暂停@@
客
2.@@
pembangunan
comfort
welcomed
Rio
defaults
凸显出@@
这场危机@@
techniques
Sachs
弗里德曼@@
physics
较低@@
肯尼迪@@
sioned
美好@@
金本位@@
非
tele@@
intu@@
encies
scrutiny
老龄化@@
杯@@
迫切需要@@
税收和@@
叶利钦@@
homo@@
gran@@
软实力@@
counts
联合国
下台@@
的日本@@
社会和经济@@
Maynard
思考
香@@
收
helpful
越来越多地@@
看成@@
持久的@@
cautious
诱惑
还有一个@@
机械@@
务
transnational
比利时@@
囚@@
decisively
robo@@
incomplete
更广泛的@@
学科@@
combine
囊@@
四分之一@@
outflows
deter
落后于@@
人权
mudd@@
尝试
Nothing
discourage
departure
5,000
hatred
家长@@
continental
dubious
diper@@
AM@@
subjects
音乐@@
日内瓦@@
的人的@@
ton@@
夺走@@
挺@@
nec@@
控制着@@
失衡
在过去的@@
undertaken
标准的@@
revised
comprise
tioned
pin@@
国际社会的@@
中欧@@
使之@@
freedoms
lainnya
万亿美元的@@
feelings
fli@@
级别@@
一步
中国人民银行@@
纳米@@
医疗保险@@
citizenship
theories
ato@@
projections
泄@@
dan@@
监督
blo@@
Han@@
增速@@
ians
deliberately
生产的@@
Ha@@
富有的@@
自由化
炼@@
自由贸易协定
比尔
处理
世行@@
Regul@@
由美国@@
和能源@@
掉了@@
super-@@
Cs
尖锐@@
精英
福
面前
贸易赤字@@
绩@@
标志
过剩
的商业@@
赫
此时@@
在英国@@
kawasan
竞争对手@@
死刑@@
快速增长@@
strain
西部@@
的领导人@@
Trans@@
稳健@@
penting
jumlah
window
毁
capability
不用@@
新型@@
ine@@
遍@@
comfortable
censorship
娜
pendidikan
结构性改革@@
学生
invited
Cre@@
los
budgetary
腹@@
eat
它们可以@@
约旦河西岸@@
演讲
letting
ables
premature
货币联盟
蓬勃@@
缓
object
Congressional
mode@@
receives
便利@@
tment
Year
肩@@
Poor
虚拟@@
民用@@
inflation-adjusted
PR@@
stark
beg@@
感觉
-and-@@
miles
examine
interim
Milton
总部@@
distr@@
将近@@
relied
裕@@
标志@@
diminish
分割@@
资本主义的@@
ser
致使@@
但即便@@
Rogoff
120
根据这一@@
堵@@
生产性@@
elec@@
indication
监管机构@@
ica
irrational
的态度@@
Olympic
spon@@
peripheral
所得税@@
statistical
Cu@@
fifth
的理想@@
distor@@
unnecessary
帝国主义@@
Lanka
信誉
burdens
囚犯@@
spurred
burning
体的@@
反弹@@
Johnson
有两个@@
Bur@@
hij@@
别人@@
ailing
gotten
就像是@@
м
架构@@
的大幅@@
原子@@
捕
平
arm
为期@@
极少@@
evolutionary
ssing
scene
customs
因为这些@@
Banking
placing
债务和@@
identities
是我们@@
anc@@
并以@@
概率@@
香港
pervasive
联合国大会@@
廉@@
Hel@@
名单@@
creativity
infected
和大@@
贫困的@@
PP@@
寿@@
pes@@
大幅下降
1997年@@
权威
fting
modi@@
堡
banned
CIA
了他的@@
评价@@
contains
在2013年@@
criminals
pra@@
递@@
sale
gathering
Yeltsin
euro@@
风格@@
近几年来
gene@@
是中国@@
tinggi
repair
repu@@
对他@@
为美国@@
rated
aggressively
包括
各项@@
民族主义
政客们@@
routine
工程师@@
一贯@@
都不能@@
跨国公司@@
研究的@@
flo@@
减缓@@
少数派@@
inherited
melalui
inaction
它必须@@
培@@
中被@@
borrowed
一度@@
naval
将进一步@@
ex-@@
冠@@
ballot
产物
融资的@@
ew
色的@@
Marshall
激烈的@@
扩展@@
ides
集团的@@
有一天@@
scholars
paralysis
ow
spir@@
OPEC
不相@@
experiments
valuation
lifted
婚姻@@
为人@@
当选总统@@
维克@@
承担
想象
愈@@
bers
增强
Lebanese
汽油@@
swing
formula
甚至在@@
UR@@
triggering
上个月@@
MDGs
stock-market
马里@@
台
纽黑文
暴跌
referen@@
的使用@@
伸@@
中扮演@@
9月
expectation
scientist
例子中
姿态
0.5
成为世界@@
tening
perpetu@@
在非洲@@
必然会@@
外交部长@@
呈现@@
collectively
路径@@
denial
他们还@@
mone@@
保
对象@@
语言
silence
120@@
afflic@@
布尔@@
suspect
бас@@
罪行@@
样
实验
感受到@@
tanks
treating
reflection
maj@@
隐私@@
exclusion
在很多@@
缴@@
所导致的@@
surveys
inherent
新闻
保持在@@
square
统计
一天@@
FD@@
搭@@
cap
现代化
Policymakers
dibandingkan
fired
coast
buyers
emerges
2008年
全球的@@
Too
cher@@
distrust
orial
protections
reminder
的时间里@@
摊@@
Developing
和商业@@
cognitive
血
示威者@@
惠及@@
symbol
美中@@
1.2
第一
pho@@
任总统@@
有序@@
lately
的伊斯兰@@
自由民主@@
disputed
ections
Wen
制的@@
材料
Mus@@
股本@@
rush
的力量@@
hnya
Mi@@
Peter
在这场@@
mul@@
当务之急@@
欧洲一体化@@
em
Nu@@
silent
天气@@
Saudis
pretty
ger@@
政党的@@
的重大@@
印度人@@
总体而言
借贷成本@@
但不@@
当选
hazard
三倍
的个人@@
age-@@
spectacular
比起@@
ignoring
正面@@
缘@@
liquid
seized
fled
ols
recur@@
p-@@
haven
extending
whenever
萎缩
的人数@@
contest
古老@@
阿根廷
sionary
这一目标@@
往往会@@
neglect
的全球经济@@
亨@@
迹象
大国的@@
目前正在@@
阔@@
储存@@
荷@@
averaged
重视
贪@@
数不@@
guidelines
讨价还价@@
envi@@
火箭@@
恨@@
对以色列@@
空气污染@@
设备
hiring
发挥了@@
颁布@@
brief
dozens
және
中等@@
不可能
Val@@
劳动力的@@
制造商@@
tended
减弱
这么做@@
ich
Gandhi
的变化
outstanding
医疗保健@@
高估@@
宿@@
arly
optimal
挑衅@@
外包@@
farming
对国家@@
grant
ік
重重@@
III
动机
述
完成了@@
frontier
clash
encourages
San
操作
预见@@
ten-year
premi@@
petro@@
winner
Egyptians
认为是@@
数年@@
hard@@
fat
展开
zh@@
errors
温家宝@@
宗教
electronic
approximately
出口的@@
conviction
当务之急
vibrant
Laden
hide
在全世界@@
foot@@
的程度
迫害@@
Ironically
崩溃的@@
万人
migrant
很简单
PA
meanwhile
数百万人@@
haz@@
much-needed
透明
Revolutionary
deployment
hikes
lers
缠@@
habits
被称为@@
extension
垂@@
来讲@@
近几年@@
告诉我们
是不是@@
强加@@
militar@@
amounted
但只有@@
2008年的@@
fat@@
文化和@@
刊@@
漠@@
-minded
但如今
dist@@
borne
immune
唤@@
适当@@
Er@@
一个人@@
主权财富基金@@
的有效@@
的要求
brand
来实现@@
ric
dependency
small@@
想起@@
G-7
disproportionate
arti@@
probability
监管的@@
dol@@
Pu@@
tells
印象@@
Kazakhstan
屏@@
depending
Gazprom
深
nobody
创造
转基因@@
收入不平等@@
bled
核电站@@
轰@@
proxy
逝@@
个国家的@@
stop@@
西岸@@
suppliers
witnessed
forge
Good
在经济上@@
陆
revived
稀缺@@
伯南克@@
世界其他国家@@
那里的@@
holder
被证明@@
scheduled
流行的@@
show@@
等国@@
闪@@
掉
memories
提及@@
removing
纷@@
bases
忧@@
Premier
Liberal
揭示@@
奥巴马
ed-@@
正因如此
低收入国家@@
hyper@@
清醒@@
裁军@@
良好
tap@@
意识形态
比如说
六年@@
profitability
氢@@
这一结果@@
境况@@
spectrum
批判@@
对比@@
voc@@
originally
镇压
pivot
compar@@
不会有@@
越来越多@@
消除
fem@@
携带@@
postwar
preserving
cards
的任何@@
proclaimed
叹@@
不安@@
introducing
Socialist
赴@@
Review
formidable
processing
benchmark
世界领导人@@
重回@@
瓶@@
同时还@@
℃
和政策@@
在叙利亚@@
普遍
撰写@@
vation
的谈判@@
poised
dead@@
翼
沮丧
期限@@
销
但这个@@
brink
Under@@
8年
对我们@@
2年的@@
遮@@
接管@@
厘@@
那就是
民营@@
主管@@
已经从@@
antagon@@
centralized
sighted
两极@@
react
circum@@
候@@
News
Can@@
bert
有其@@
cep@@
利亚
纵@@
大致@@
恰恰是@@
Tax
无情@@
misguided
Europe@@
海上@@
Tu@@
搜集@@
erup@@
ome
被用于@@
Right
确立@@
程
发现了@@
如果要@@
store
melakukan
Church
住
entail
morality
set@@
萨尔科奇@@
豁免@@
纪律@@
资本主义
Jean-Claude
弱点@@
fires
厌@@
损害
有限的@@
impoverished
inspire
met@@
possibilities
tably
方济各@@
marginalized
champion
城市化@@
以避免@@
daunting
rationale
发自纽约
错误的
excuse
贝尔@@
指定@@
政府官员@@
仅为@@
信息的@@
一半
不稳定
利于@@
vest
proceed
两名@@
frustrated
differenti@@
粒@@
在198@@
百年@@
这并不@@
扭曲
令人信服@@
平均水平@@
得太@@
在这样的背景下
反恐@@
bia
的人权@@
2000@@
secured
symbolic
&apos;t
wal@@
浅@@
追踪@@
understands
我们不@@
通缩
没有理由@@
英雄@@
determining
states@@
接下来@@
核不扩散@@
appetite
具体的@@
不同于@@
商务@@
influenced
ror
全世界最@@
研究者@@
犹豫@@
贪婪@@
但要@@
充分就业@@
踏@@
Leader
aria
市长@@
力度@@
基督徒@@
洞@@
tn@@
Mali
thrown
为他们@@
灵活性
parliaments
无法解决@@
健康和@@
丹
strange
ences
勃@@
print
crac@@
2,000
都认为@@
Coun@@
万美元
基础的@@
的压力
MO@@
lan
合成@@
colon@@
终极@@
理性的@@
需要一个@@
dangerously
sat@@
non-state
电力
或者是@@
是世界@@
一方面
ints
clients
ert
奔@@
她们的@@
债权人
竞赛@@
变得更为@@
discredited
舞台@@
erosion
skeptical
症状@@
keeps
atri@@
非常重要
CF@@
Serikat
有机@@
债权人的@@
清
在为@@
发展援助@@
satis@@
可不是@@
著
颜@@
似乎也@@
尤其如此
顶层@@
业务
ums
开罗@@
drug-@@
Politics
ele@@
的老@@
罪行
较低
的独立@@
德拉@@
王朝@@
脑
benign
中学@@
permitted
二战结束@@
沦@@
resp@@
迹象表明@@
bears
20-@@
overly
假定@@
investig@@
bis@@
政府可以@@
避免
传达@@
必定@@
无不@@
Four
剥@@
alloc@@
Former
鼓舞@@
behalf
Men@@
偏离@@
mature
exchanges
但许多@@
tax@@
保护和@@
environmentally
操纵
likes
流血@@
宣告@@
Cri@@
更重要的@@
names
hate
损害了@@
手术@@
谋
human-@@
Tokyo
logically
低迷
imminent
slump
回归
瘫痪@@
核电@@
Comp@@
辩护
丧生
上帝@@
accessible
tarian
Tur@@
至少是@@
基
不变
津巴布韦@@
53
highlight
帝国的@@
foods
20世纪60年代@@
卡塔@@
期望
climate-change
termin@@
所做@@
首
的人类@@
absor@@
几年
波多黎各@@
spends
与西方@@
ris
37@@
奴@@
semakin
Li
іс@@
intensified
thrive
Red
fragmentation
沉默@@
在这样的@@
ania
deregulation
fal@@
founder
将在未来@@
努@@
但是它@@
Nazis
Tre@@
须@@
ven
sel
coc@@
老年@@
Vice
ey
物的@@
跨太平洋@@
Smith
热带@@
人死亡
关联@@
有很多@@
agar
小学@@
sanitation
利用其@@
不同的是
幻想
provinces
的论@@
国内生产总值@@
阿富汗和@@
ard@@
Holocaust
群体的@@
应有的@@
证据表明
ry@@
advocated
achment
的数据@@
aches
结构改革
at-@@
interconnected
psychology
essence
不可持续的@@
最多的@@
east
cited
天然气
horizon
在中国
实实在在@@
沉重的@@
财政政策
战术@@
密集型@@
Wh@@
会上@@
desc@@
峰@@
实际的@@
的不平等@@
途
Military
则在@@
溢出@@
composition
star
factions
艰苦@@
基金组织@@
arbitrary
执政
板
穷人的@@
chem@@
thinks
indicator
thri@@
荒谬@@
bes
政府债务@@
US-led
ika
本币@@
的危机@@
subsidy
了一次@@
趋@@
史上@@
将由@@
Through
now@@
ecosystems
我们要@@
工资和@@
呼声@@
rol@@
了他们的@@
tually
school@@
更深@@
bitter
commerce
加沙地带@@
ME@@
露
丘吉尔@@
瓜@@
零
slogan
招募@@
机关@@
鬼@@
意大利的@@
阿拉伯世界的@@
付诸@@
成为现实
重蹈@@
Yugoslavia
比以往@@
rem@@
而在于@@
conscious
obli@@
集权@@
tioning
profession
意义上@@
鲁莽@@
的人来说
港
妇@@
Forces
shadow@@
国际刑事@@
沿海@@
滚@@
illi@@
Larry
Basel
Australian
cliff
理事@@
permanently
亲密@@
quarter-century
lifetime
fix@@
孤立
routinely
土壤@@
因此而@@
铺@@
管辖@@
急于@@
充足的@@
原始@@
refu@@
很少有人@@
格里@@
阿里@@
дың
Ku@@
pla@@
II@@
局部@@
政府已经@@
将把@@
控制权
lifting
McCain
准备金@@
技术进步@@
portion
的最低@@
以前的@@
nomination
affili@@
1.4
个人
视而不见
社会和@@
reactions
存的@@
站
repeat
农业
指控
瘫痪
极限
nationalists
depan
Ang@@
利比亚
occasion
ел@@
并把@@
法德@@
半
episode
高风险@@
five-year
分为@@
野心
evalu@@
昂贵的@@
大麻@@
1991年@@
reveals
author@@
ements
Round
ome@@
tujuan
深陷@@
最坏@@
culmin@@
62
脸@@
System
BR@@
停滞不前
中获@@
真是@@
恋@@
perio@@
miss
Hou@@
Confuci@@
urgency
电网@@
的条件@@
par
五大@@
垃圾@@
看不到@@
rich@@
radically
德尔@@
tap
Chen
Hun@@
9.@@
Had
很快就@@
可能对@@
堂
咨询@@
双边关系@@
畏@@
歇@@
资源和@@
worsening
垮@@
Calderón
amin
避难@@
ketika
Rome
波兰
很小
就在于@@
soccer
认可
listen
Over@@
要求的@@
棒@@
复兴
这个数字@@
仇@@
人们所@@
depth
向前@@
中国已经@@
忙@@
dated
Turk@@
attributed
制作@@
public-health
onic
participating
ken@@
ім@@
为时@@
recommended
追随@@
third-@@
ultra-@@
浪费
industrialized
饲@@
retreat
布雷顿森林@@
wary
填@@
grim
Society
enced
中小企业@@
boards
僵@@
而欧洲@@
fees
Manuel
美国应该@@
貌@@
领导力@@
divi@@
现代化的@@
viewing
Would
coalitions
腐败和@@
的经济和@@
tries
长期以来
awa
钢铁@@
paradigm
做好准备
追随者@@
El
Director
留下的@@
exceptional
pending
给他们@@
алық
搜@@
Sar@@
律
自行@@
地认为@@
indigenous
早些时候@@
Peninsula
低估了@@
Tig@@
大批@@
convenient
launching
朋友
媒@@
膨胀
sektor
feels
的税收@@
彼得@@
透明度
Af@@
1995年@@
解体
我们能够@@
lower-@@
grievances
issu@@
Franklin
住了@@
保卫@@
forth
日本银行@@
self-interest
中央银行
Sen@@
extends
品的@@
蒙受@@
в@@
signing
派别@@
经常项目@@
recipe
传统上@@
Everyone
9年的@@
适当的@@
在2014年@@
幻想@@
复制@@
2030年@@
counted
将比@@
loose
儿童的@@
在一定程度上@@
美国和其他@@
清除@@
协商@@
令人担忧@@
撤离@@
的变化@@
危及@@
worsen
financial-@@
ail@@
石
黎巴嫩
全世界
摸@@
favorite
diff@@
昂@@
producer
TE@@
通胀的@@
Recently
awn
什么样的@@
生活中@@
fur@@
开发银行
穷
没有得到@@
lots
iri
实体经济@@
葡萄牙
货币市场@@
stalled
银@@
conservation
瓦尔@@
Elec@@
接纳@@
奏效
下来@@
й
fluctuations
swe@@
管理者@@
接受的
续@@
resha@@
的改革
楼@@
例外@@
债券市场@@
团
dies
Inflation
贷款人@@
例子是@@
报复@@
的事实@@
震惊@@
teach
穆罕默德
照顾@@
选民们@@
3年的@@
conclusions
indic@@
十年前@@
luxury
impe@@
剧
扬
动的@@
2025
Wil@@
可能的
上任@@
57
Ayatollah
下来的@@
rests
lacked
Soci@@
场合@@
微观@@
十年的@@
疗法@@
traded
struction
Darfur
奶@@
unilaterally
privileged
办
充分
深深@@
戴高乐@@
dictator
will@@
slide
有一点@@
社交@@
equitable
intensity
懂@@
disturbing
齐
inhi@@
先
论坛
平价@@
柔@@
一开始
头脑@@
propose
善
ues
inflicted
militias
它们所@@
transaction
tion-@@
辞职
不符合@@
大臣@@
见证@@
必要的
分化
草案@@
漫长的@@
considers
尼泊尔@@
2018
uck
内政@@
stock@@
其中最@@
会将@@
用了@@
counterproductive
也比@@
动作
Don
漏洞
nineteenth-century
ounce
Representatives
可能造成@@
incapable
社会福利@@
可供@@
庭@@
劝@@
的英国@@
sam@@
如果他@@
notice
empowered
Medicare
法治
贫困和@@
commun@@
迟早@@
grants
设计
abandoning
Similar
融合
cally
也是一个@@
advent@@
捉@@
deadly
互动
环境下
件事@@
随机@@
入学@@
GDP增长率@@
resisted
糖尿病@@
这三@@
bail
稳定性@@
世界杯@@
魅力@@
美国国务卿@@
的决定
towns
令
造
satisfy
菲
obe@@
亚洲和@@
准则
屡@@
investment-@@
战略的@@
算不上@@
dampak
境内@@
neg@@
蚊@@
stic@@
alter
情景
宝贵@@
服务和@@
机场@@
toler@@
handle
outsiders
page
replacing
急切地@@
上世纪@@
dividends
投入
41
51
的经济发展@@
化了
福祉@@
会把@@
reconcile
kets
satisfied
耐药性@@
辞
Ren@@
对未来@@
embracing
满足
practically
leveraged
挑选@@
笑
Zimbabwe
行动方@@
lined
和我@@
仍未@@
但他的@@
coastal
Volcker
族
派系@@
Hor@@
crowd
美联储
获得者@@
的意愿
第四
tible
伊斯兰国的@@
inger
euros
transitions
公司税@@
Leave
mil@@
nam@@
curb
allied
eld
tactical
curren@@
振@@
obesity
arbit@@
除此之外
节省@@
盖
assessing
invariably
看着@@
搬@@
的传统@@
顾
吞@@
strang@@
挣扎@@
中获益@@
doors
根深蒂固的@@
将无法@@
eled
罗斯@@
停止
他们就@@
意大利和@@
棉@@
不变@@
oran
迁徙@@
preser@@
tho@@
que@@
议题
酸@@
betra@@
inism
pos@@
法庭
在197@@
绳@@
车臣@@
literally
也正在@@
哈萨克斯坦@@
蔽@@
慢慢@@
free@@
reluctance
sponsored
坝@@
这些问题
截@@
欧洲在@@
ин@@
压
mes@@
巴塞尔@@
motion
奥尔@@
指引@@
domin@@
饰@@
美国人的@@
白
其结果@@
谴责
哈佛@@
sitting
Romania
time@@
admitted
避免了@@
fragmented
少数族裔@@
主张
与美国的@@
也与@@
sheer
document
选举结果@@
reconc@@
定义为@@
错了
布莱@@
pure
我们还@@
雄心@@
劳动力市场
克劳@@
备受@@
持续下去
reson@@
抵达@@
Lula
favors
masa
尽管在@@
纪录@@
令人不安@@
暴行@@
灭
甚至可以@@
Dar@@
lows
attracting
philanthrop@@
der-@@
接
的信贷@@
我们就@@
流的@@
英语@@
贷
Afrika
满意@@
bi
吹@@
whe@@
publi@@
室
ffe@@
patho@@
Jud@@
掠夺@@
ignorance
绝不@@
纳税@@
为主@@
Asians
insights
时所@@
欧洲央行
tism
增长模式@@
Euro
一定会@@
效益
market-@@
孩子的@@
跃@@
斗
释@@
intimid@@
的信任@@
trapped
可以追溯到@@
market-based
不负责任@@
存活@@
努力的@@
对方@@
vel
entrepreneurship
Thanks
xed
seeds
aks
副总统@@
了许多@@
的例子
贷款的@@
hu
主导的@@
多样@@
high-level
其他地区@@
以外
mindset
俘@@
massacre
惊人@@
of-@@
将这一@@
ып
悖@@
未知@@
menye@@
inst@@
Sup@@
因为其@@
菜@@
收入分配@@
荡@@
市民@@
这会@@
政治领袖@@
和水@@
calcul@@
影响着@@
warm
akin
far-right
grip
far-@@
要为@@
hot@@
45@@
微软@@
Games
central-bank
aligned
难度
refusing
君@@
emotions
Civil
autoc@@
开放的@@
deleg@@
trafficking
是无@@
是否应该@@
债务负担@@
rewards
Swedish
安抚@@
制度和@@
付出的@@
rud@@
minded
handful
Pla@@
ails
生涯@@
开来
mes
10,000
detec@@
基石
较高的@@
这些都是@@
情愿@@
预算的@@
nation-state
ikan
centered
explosion
一部@@
年代@@
撤销@@
蒸@@
阿卜杜@@
mess
resource-@@
Southern
碑@@
selama
1967年@@
autonomous
其他地方@@
贡献了@@
topic
margin@@
不对@@
会发生@@
pot@@
Affairs
decrease
源自于@@
tail@@
墙
technocratic
难题@@
rank
masih
有足够的@@
墨@@
是让@@
化解@@
的信心@@
incorpor@@
和欧盟@@
coordinate
balancing
hope@@
必须得到@@
港口@@
通胀目标@@
冬@@
漂@@
智慧
马尔@@
可以获得@@
lement
tas
category
aded
成年@@
empirical
无意@@
美国国债@@
么
集中
empty
活力的@@
大得多
disappear
ге
上限
高昂的@@
fif@@
ature
弥@@
tougher
术@@
Sinai
欧元危机@@
collect
高等@@
不堪@@
breakdown
范围内
agu@@
加入欧盟@@
aver@@
risk-taking
semua
十亿@@
在俄罗斯@@
妇女和@@
风能@@
denying
嘴@@
abilities
唱@@
vering
kal
的信用@@
可贸易@@
meat
for-@@
充分利用@@
仅限于@@
sh-@@
opponent
上升的@@
痛
disappeared
下令@@
Fe@@
tery
却被@@
Companies
disappointing
交流
inspec@@
联合国气候变化@@
Eng@@
sided
民族主义的@@
在德国@@
accommo@@
带
Delhi
论证@@
accomplish
将会是@@
财富的@@
偶尔@@
responsive
狗@@
dilakukan
金融危机的@@
appearance
一定的@@
最初的@@
了一些@@
岸@@
关键的@@
在2007年@@
38@@
严厉的@@
是将@@
imagined
overthrow
卷@@
Des@@
钟
匹@@
之间的关系@@
胜出
南斯拉夫@@
SDG
Protection
外国投资者@@
vastly
民族国家@@
tural
卫生
Tal@@
明智的@@
业的@@
ower
Balkans
杠杆
评论家@@
欧洲各国@@
治国@@
艾滋病毒@@
机制的@@
撤出@@
incumbent
Maastricht
一届@@
海地@@
重要的一@@
工作人员@@
itting
Puerto
temp@@
最大
成分@@
outrage
safeguards
的理论@@
获得
invented
Euro-@@
NI@@
covering
更不@@
当今世界@@
therapy
丧@@
此后
忌@@
形容@@
我对@@
发育@@
类型@@
jar@@
long-standing
tax-@@
subsidi@@
frigh@@
也不可能@@
年底@@
拟@@
虐@@
教派@@
债务重组@@
山
一书@@
tary
一群@@
futures
谁
克鲁格曼@@
著作@@
lied
mining
形势
如何应对@@
互换@@
postpone
积极地@@
羊@@
但即使@@
科尔@@
perusahaan
Baghdad
istan
谈判中@@
deserves
外交
blocking
寥@@
wasted
Indi@@
prompted
Haiti
等到@@
187@@
生产和@@
缴纳@@
处的@@
今日@@
健
disagree
员工
spot
impul@@
将决定@@
2013年
reasoning
和民主@@
收获@@
replacement
从现在@@
是要@@
情形
扩张性@@
12月
意在@@
的努力
Ghana
通货紧缩@@
挂钩
潘@@
ows
celebr@@
Vi@@
deliberate
wa
Annan
meningkatkan
closest
热情
有时候@@
suited
某种程度上@@
资本账户@@
deploy
巴格达@@
零利率@@
可以成为@@
而应该@@
失灵@@
perjanjian
revol@@
NE@@
games
foreign-@@
救
所欲@@
环境中@@
货币贬值@@
Tim@@
近来@@
毒
doubling
recru@@
revolution@@
会议的@@
捐@@
静
illustr@@
RE@@
的巴勒斯坦@@
的科学@@
assert
karena
殖民地@@
的后@@
萨达姆
episodes
向美国@@
得益于@@
OS
6年的@@
wed
stressed
时间里@@
清洗@@
已然@@
smoking
合同
FDI@@
excesses
flat
基础上@@
集
这个世界@@
rampant
以一种@@
信息和@@
医药@@
讽刺的是
cong@@
寸@@
clout
葬@@
communic@@
burg
2014年
梦想
曝光@@
compare
公共投资@@
fulfilled
来应对@@
calculation
全球性的@@
Tea
欧美@@
卷土重来
结束了
longstanding
言论自由@@
sport
Mikhail
Al-@@
催生了@@
花钱@@
猪@@
曾经是@@
占总@@
径@@
stimul@@
izes
夺
dictators
的阴@@
graphy
贫困人口@@
的影响力
lit@@
成熟
欧盟领导人@@
厄瓜多@@
disruptions
rog@@
marine
坚信@@
干
AS
术
undergoing
possess
前沿@@
误
emisi
Dem@@
建设性@@
十分重要
gather
embar@@
济@@
short-@@
terjadi
巡@@
拉登@@
奢侈@@
次要@@
Bro@@
国务院@@
Incre@@
不合@@
quiet
棋@@
Hal@@
Fer@@
责任的@@
invent@@
studied
valued
圣诞@@
è@@
整合
石油和@@
tained
tian
tial
为我们@@
研究人员@@
...
activist
将自己@@
keen
受欢迎@@
evolving
非国家@@
战斗
combating
斯托@@
н
失望@@
的时候了
结束了@@
systematic
推进
的出口@@
军官@@
mili@@
perfectly
拙劣@@
Mari@@
ideals
och@@
satellite
serta
autom@@
沮丧@@
generates
maintains
nar@@
proving
第一步
graph@@
交易的@@
monthly
11月
最小@@
暂@@
到处@@
人民党@@
Kenneth
pillar
趣@@
perlu
席
典型的@@
atrocities
ре@@
speeches
soli@@
不信任@@
dity
阵线
music
迄今为止
Emerging
self
困难的
快速增长
激烈
奥斯陆@@
迟
限于@@
歧视
belum
enforced
吸烟@@
Ni@@
Workers
berkembang
daya
的国@@
plur@@
aps
spectac@@
mandatory
despair
Specifically
阻挡@@
他认为@@
资产负债表
缩短@@
ratified
摩尔多瓦@@
G20
围
不是一个@@
instance
极具@@
支
gradu@@
Children
共和@@
差别
不能再@@
manship
的工作
stun@@
协会@@
的后果@@
defensive
权衡@@
拒@@
署
tangible
违背@@
不允许@@
翼@@
扶@@
原因在于@@
近几年来@@
drone
neutral
有没有@@
它应该@@
强国
并不会@@
如果它@@
Accor@@
偏向@@
universe
苏联的@@
blu@@
虽@@
新鲜@@
是完全@@
重大
Old
焦点
ual
萨科奇@@
fusion
susp@@
制定的@@
记住@@
impunity
另一场@@
insisting
实现的
cast@@
体验@@
软实力
波
公路
best-@@
路径
尔德@@
beings
initiate
itive
选区@@
boo@@
eroded
ams
AMR
Tsipras
adviser
就业岗位
顶级@@
忍@@
提供
生物燃料@@
ands
apa
复
制药公司@@
恰当的@@
尚不@@
smooth
organize
挑起@@
被
capit@@
暴力和@@
底层@@
academics
mener@@
unleashed
的报告@@
最后一个@@
Ver@@
所发生@@
pundits
但也有@@
能源的@@
dual
namun
分化@@
詹姆斯
采访@@
条件的@@
倒闭
送到@@
创新性@@
必须要@@
clim@@
Ba@@
达成
可见@@
assassination
tribu@@
形成的@@
interaction
offices
在当前@@
minyak
截止@@
可持续的@@
名的@@
trum@@
thetic
总共@@
既有@@
vulnerabilities
Uni@@
也很@@
可持续性
毕@@
high-tech
账户
Wo@@
告
的石油@@
ond
势头
Care
baby
不乏@@
少数民族@@
sibly
未经@@
显现@@
je@@
ssi@@
oms
ored
evol@@
lun@@
interdependence
believing
Open
福岛@@
New@@
breakthroughs
prize
DPJ
drought
而尽管@@
达沃斯@@
永久性@@
无比@@
trav@@
里程@@
此外还有@@
告诉我们@@
地带
的同@@
夕@@
embarra@@
需要的是@@
金正日@@
多少
ті
booming
峰会上@@
耕@@
indirect
ny
得不@@
的持续@@
哈佛大学@@
在西方@@
saja
绕@@
层面的@@
游行
激起@@
宣传
arsenal
蓄@@
匹配@@
00
最终会@@
write-@@
readily
丑@@
自2008年@@
政变
Hugo
之中@@
plum@@
的美国人@@
确切@@
malnutrition
强劲
绝非易事
IA@@
程度上@@
之以@@
和更@@
这样的
城镇@@
技术官僚@@
educ@@
-American
储量@@
协作@@
方便@@
instinc@@
世界经济论坛@@
幕后@@
manufactured
能够让@@
在2006年@@
女
难免@@
并让@@
争议的@@
这一政策@@
河
ministries
杀人@@
而且在@@
可能成为@@
答案是@@
ami
利益和@@
它对@@
Hol@@
inex@@
ceasefire
cohe@@
男女@@
去杠杆@@
motivation
坐视@@
军事力量@@
而有@@
bombs
Gaulle
quotas
interrup@@
Pol@@
美国及其@@
种子@@
还是在@@
maybe
tolerate
所有人
oling
大笔@@
道德
公正
warranted
guided
communicate
Belarus
inherently
中央银行的@@
ық
扑@@
2017年@@
breakup
HIV@@
个别@@
Hosni
troika
termasuk
可持续发展目标@@
overcoming
权利和@@
deterioration
温和
能使@@
鼎@@
expan@@
亚努科维奇@@
审判
越大
67
LI@@
Oslo
stig@@
黯@@
的数量@@
自由贸易协定@@
颠@@
他们都@@
moder@@
facilitated
multilateralism
之间存在@@
中国将@@
Xiaoping
remittances
上一次@@
upgrading
检测@@
税收收入@@
平等的@@
才有可能@@
із@@
dam
任由@@
国家在@@
敌意@@
Vir@@
secretary
lea@@
宪章@@
sentiments
促成了@@
流离失所
已经过去@@
政治制度@@
full-@@
allegedly
吉尔@@
elled
誉
艾滋病
ron
仪@@
rethink
涨
欧亚@@
diagno@@
struggled
avert
股票市场@@
评论
规避@@
gi
arrive
Len@@
州长@@
无能@@
continuous
回报率@@
hil@@
掌权
外长@@
removal
冒险
所提供的@@
二
complacency
items
adap@@
监测@@
medic@@
将带来@@
elect
热衷于@@
生产者@@
record-@@
Vienna
以色列总理@@
带领@@
aching
restrict
娱乐@@
我们应当@@
Monti
64
日趋@@
consumer@@
过时@@
教会@@
短视@@
分析师@@
源泉
发自剑桥
官员们@@
固的@@
它会@@
全球气候@@
病例@@
shrink
被告@@
Bo
萎缩@@
适用
Margaret
卫
这种做法@@
骚乱@@
Mechanism
already-@@
kepada
者是@@
被用来@@
花
大卫
flowing
约翰@@
gence
enlightened
各自的@@
开端
Str@@
多年
依据
窗@@
当我@@
fare
早些时候
利息
犹太人
意味着什么
居
tab@@
知识和@@
行动起来
mungkin
谎言@@
全球增长@@
衷@@
humiliation
产出
commonly
社会和政治@@
documents
滋@@
最终将@@
erode
referred
主要由@@
exploitation
规定的@@
清理@@
个性@@
dise@@
不利
误解@@
induce
生活方式@@
2007年
philosopher
忙于@@
тер@@
日本经济@@
紧迫
叙事@@
center-left
支柱
收支@@
基金的@@
核
有意义的@@
的方向
因素的@@
autocratic
63
压倒性@@
walk
economic-@@
他也@@
dd@@
Sel@@
约有@@
sosial
核试验@@
Slo@@
档@@
淡
扩大的@@
Uganda
merupakan
intensify
资本外@@
vehicle
170@@
GDP增长
5000@@
Private
2,000@@
这也许@@
无法在@@
IP
有毒@@
kasi
har
人认为@@
医生
该报告@@
awat@@
进来
吸引力的@@
EMU
ranked
line@@
Ide@@
在2005年@@
捕捞@@
预计将@@
表达了@@
工业革命@@
employ@@
高质量@@
象征
艰难
Liber@@
droughts
anti-corruption
winter
仅次于@@
越南
奖
declaring
截然@@
seluruh
altering
left-wing
举动
鲜有@@
fronts
ER@@
对许多@@
exploited
更快
meters
直觉@@
的事
果真如此的话
export-led
新一代@@
confid@@
concerted
借钱@@
duties
阿拉法特@@
abor@@
miracle
将不会@@
plummeted
ecosystem
hac@@
不可避免的
Americ@@
显现
asts
细菌@@
中国正在@@
只有当@@
理性
alan
hungry
饮食@@
AC@@
vague
spots
珠@@
marketing
也不再@@
Morgan
everybody
闻
credit@@
当下@@
expres@@
镇@@
lining
破灭@@
的反对@@
地区和@@
riots
生活水平
睡@@
主权的@@
insight
道义@@
对政府@@
appreciated
从200@@
mit@@
渴望
CS@@
裁决
猜测@@
teenth
兴起
英国政府@@
pockets
装
意外
辩护@@
apkan
这是一种@@
ima
Chair
落入@@
它们对@@
Pada
frustr@@
dev@@
demago@@
high@@
激增
booms
manageable
遍布@@
共同体@@
的基础上
上市@@
基本面@@
affair
black@@
物流@@
中东地区的@@
rigid
mented
令人瞩目的@@
blin@@
Far@@
construct
不是
ST@@
令人难以@@
minutes
傲慢@@
秋@@
是为@@
关键作用
普世@@
outset
Stat@@
合理的
减税
供应商@@
无关
origins
次级@@
罗姆@@
necessity
支付
的经济体
vol@@
militarily
freeze
underground
命令@@
common@@
我们无法@@
corner
或者说@@
乐于@@
narratives
成本和@@
殖@@
世界各地的@@
forum
rant
音
犯下@@
66
诺贝尔经济学奖@@
陷阱@@
几乎肯定@@
assa@@
分支@@
广大@@
隐性@@
withstand
速
截然不同的@@
traction
武力
偏见
inform@@
mistrust
enter@@
prudent
但有@@
解决办法@@
饥荒@@
Rus@@
实现这一目标@@
这么做
并通过@@
deputy
可能需要@@
controversy
municipal
解散@@
关键性@@
mechan@@
uncertainties
程度上
Gorbachev
他们自己@@
召开的@@
建立的@@
ф@@
swap
也正@@
东北@@
的一年
exemplified
人们普遍@@
ан
utterly
weigh@@
为了避免@@
Contin@@
conceived
assured
promp@@
ca
residential
harb@@
somewhere
已经是@@
Pes@@
appoint
死亡人数@@
indefinitely
劳动力市场的@@
过早@@
对待
妻@@
猛烈@@
峰会上
proposing
beneficiaries
委内瑞拉
篇文章@@
concentrate
350@@
remar@@
在此期间
金融和@@
赢家
阵线@@
电视台@@
伊斯坦@@
准
约瑟夫
Boris
existed
guilty
所有权@@
的承诺@@
公正的@@
简单地@@
会继续@@
bipartisan
mali@@
by@@
FARC
北极@@
宽容@@
荷兰
Mumbai
addresses
Hy@@
维也纳@@
ots
schooling
个月
新兴市场的@@
惑@@
贸@@
dana
高等教育@@
unlimited
Nearly
齐聚@@
motives
这两大@@
女权@@
metri@@
达成协议
mainland
heightened
廷@@
多久
培育@@
Reli@@
acies
畅@@
方面都@@
的方@@
Kuwait
这只是@@
降到@@
sures
ter-@@
示威
River
i-@@
m-@@
大相径庭
预算赤字
gy
emer@@
ese
案例
债务危机@@
发言@@
紧密的@@
philosoph@@
近的@@
program@@
Sing@@
conditional
survived
并将其@@
rendah
ition
vigil@@
多于@@
Investors
endless
GE@@
多元化@@
欧元区外围@@
ga@@
马歇尔@@
全球经济
urge
能力和@@
coupled
鼓舞
keuangan
revolt
巴西的@@
rein@@
flood
emission
信用
kin
Stan@@
岸
俄罗斯总统普京@@
lou@@
这或许@@
法律的@@
预测的@@
center-right
al-Qaeda
辨@@
把持@@
昆@@
奖励@@
竞选活动@@
working-age
strengths
等同于@@
联系在一起
电影
经历
遗留@@
的要求@@
这一决定@@
最不@@
incremental
斯洛@@
醒
爆发的@@
video
cour@@
在政府@@
到期@@
受益于@@
Up
dismiss
国大党@@
当中@@
本已@@
会是@@
的预测@@
punish
allocate
当今的@@
Pem@@
激增@@
咄@@
author
的局面
完美
Shor@@
软弱@@
以防止@@
road@@
Money
Alban@@
俱@@
neglected
historian
pillars
瑞典
demonstrating
拒绝
在他的@@
ine-@@
事业
Zealand
ef
平稳@@
anni@@
AA@@
sehingga
Fukushima
没错
撕@@
resolutions
insolvent
interpreted
Cuban
可能被@@
ou
生物学@@
世界银行的@@
疫情@@
掀起@@
的受@@
killings
socialism
后者的@@
能够以@@
崩盘
耐药@@
smugg@@
核计划@@
700
桶@@
而随着@@
eded
maneuver
而且还@@
没有哪@@
囤积@@
背景
underestimated
态势@@
hoping
层面上@@
的影响力@@
的理@@
lements
报酬@@
abundant
厂
ecological
迈出@@
比亚@@
多样性
IS
这场战争@@
职责
Cap@@
民族主义者@@
ona
sums
实质性@@
效率和@@
Service
之道@@
UE
弗拉基米尔
defen@@
赦@@
的选民@@
domestically
公然@@
不可避免@@
pass@@
让中国@@
ға@@
agendas
贝鲁@@
升
松
所言
所说
pointing
gh
tici@@
周年@@
dre@@
安南@@
isi
chec@@
欧盟在@@
Recep
稳定性
ion@@
emulate
地图@@
偿债@@
ech@@
ынд@@
KGB
拓展@@
by-@@
不受欢迎@@
fir@@
相当大的@@
是一件@@
normalization
sub-prime
arrog@@
能够获得@@
甩@@
灾害@@
unintended
元素
racies
作战@@
枢@@
温和派@@
Tayyip
可能出现@@
为止
鼠@@
之举
谋求@@
多名@@
女儿@@
受到影响
工作岗位
signaled
bleak
Bay
强调了@@
Life
的政府
维奇@@
1.6
在该@@
某些国家@@
徒劳@@
选出@@
与此同时@@
页岩气@@
南
摆脱了@@
现今@@
1914
测
淹@@
compromises
urban@@
展
ium
sekarang
的一位@@
ales
脱欧
Guantánamo
震惊
平衡的@@
公平的@@
人的生命
preced@@
这个词@@
从这个@@
renewables
平静@@
退
Ukrainians
这部@@
injustice
technocrats
依然在@@
cost-effective
记得@@
Silk
2020年@@
eradication
跟踪@@
的民众@@
stepped
的方针@@
terri@@
是不可能的
arises
美国与@@
梅德韦杰夫@@
market-oriented
询问@@
Est@@
卜@@
ilan
ón
member@@
智利
cross
冲突和@@
lethal
几年中
celebrate
behavioral
来说是@@
它需要@@
如果欧洲@@
第三次@@
ти@@
Castro
lobbying
mar
马克
ің
obliged
ressed
adi
А@@
比率
tentang
达到
储户@@
投资银行@@
如何在@@
具体而言
remind
Warren
馆
club
恶性循环
ids
mentioned
Exchange
exceeded
过渡
subordin@@
成绩@@
大选中@@
答@@
Schäuble
省
ology
预想@@
我们会@@
respects
紧缩政策@@
agg@@
估值@@
locations
崩@@
出口国@@
comprising
consi@@
mega-@@
acro@@
的权力
-year-old
是多么@@
很明显
ss-@@
对俄罗斯@@
最后一@@
合法性的@@
鲜明@@
feet
logist
解放军@@
boun@@
的平均@@
6.5
财政
生物多样性@@
广播@@
slo@@
correctly
sluggish
answered
totally
苦苦@@
制造了@@
orthodoxy
衰退的@@
相应的@@
物质
disposal
老牌@@
cite
tz
氛围@@
Ram@@
Ker@@
crackdown
jum@@
lowered
初始@@
的三@@
庞大
妻子@@
手中的@@
也非常@@
picked
feren@@
ware
穆斯林世界@@
一路@@
dog
比以往任何时候都@@
猜@@
internasional
替代方案
appeals
与其说@@
Gam@@
阿布@@
movie
exaggerated
thin
信仰
circles
点燃@@
kelompok
覆辙
Bernie
舞@@
科学的@@
打败@@
contradictory
世界经济的@@
反应堆@@
erec@@
竞赛
邮@@
支出和@@
loy@@
assembly
经济发展
defici@@
overlooked
assist
剩下的@@
几次@@
必须以@@
烈
rup@@
新任@@
问题在于
的全球性@@
是时候@@
once-@@
mencapai
七年@@
它也@@
ups
财政赤字
健@@
accompli@@
养老@@
导弹
齐普拉斯@@
可持续发展目标
侯赛因@@
真主@@
从这个角度讲
unequal
摄氏@@
和其它@@
Renzi
bankrupt
只需@@
太阳@@
march
格拉@@
ours
HI@@
广
尊严
支柱@@
accurately
叙利亚总统巴沙尔
insu@@
Administration
tenure
1982
distinc@@
stand@@
通过将@@
clarity
渗透@@
Baltic
到2030年@@
第二轮@@
90年代@@
spo@@
基本的@@
更深层次@@
lasted
reaffir@@
calculated
安置@@
margins
violation
adult
ised
wrong@@
cost-@@
militant
首席执行官@@
抑郁@@
更长@@
ambiguous
给出了@@
经济活动@@
约旦
指令@@
disrupt
有用@@
美国和欧盟@@
韩国的@@
可以提供@@
feedback
Moldova
不大
很不@@
否认
diversification
twe@@
ila
常见的@@
强烈
托马斯
valid
masses
毕业生@@
退欧@@
特定的@@
制定
tin
deteriorating
喷@@
wishes
如果这些@@
洁@@
赞同@@
sick
重返@@
据此@@
国民生产总值@@
极端
jak
mend@@
tain@@
和伊朗@@
多样化@@
unresolved
挣扎
compact
angka
他说@@
indirectly
酝酿@@
prevents
imagination
提出了一个@@
ride
debt-to-GDP
selected
preventive
fit@@
Nepal
几乎是@@
writer
contribu@@
自己在@@
motiv@@
Kur@@
attacking
robots
加入
演说@@
1971
dedicated
Beng@@
那么它@@
前瞻@@
re-election
让世界@@
ON@@
卵@@
单一货币@@
gravity
rendered
thor@@
flag@@
基础设施和@@
Italians
冷静@@
ater
还有待@@
Ecuador
社会安全@@
挫@@
和军事@@
有意义@@
似乎在@@
但大部分@@
incar@@
renewal
总统奥巴马@@
counterpart
兆@@
进步的@@
叙利亚内战@@
insolvency
预先@@
suspended
创造性@@
痕@@
勇@@
启动了@@
49
承担起@@
Il@@
acity
8年的@@
quantity
Marx@@
实现其@@
羞辱@@
scores
BRCA@@
之内
4,@@
年均@@
teaching
gasoline
反常@@
一股@@
外汇储备
hkan
ignores
穿越@@
conversation
也就是说@@
生殖@@
卡斯特罗@@
精英们@@
强奸@@
-of-@@
保罗@@
destiny
elusive
硬着@@
telecommunications
Mandela
受害@@
谅@@
60年@@
seas
令人印象@@
很少有@@
Don@@
朝鲜的@@
excellent
谬@@
他们需要@@
警惕
Sub@@
超级大国@@
OR@@
会晤@@
substance
坚实@@
数据的@@
NGO
pasar
将是一个@@
Independence
另一位@@
超出了@@
那些在@@
连任
的时机@@
activism
noticed
tum
defi@@
hing@@
karbon
正在发生@@
突出@@
新兴经济体
了一条@@
和俄罗斯@@
成为可能
connectivity
减记@@
hab@@
遗产
endured
博弈
阶层
reacted
改进
labor-intensive
offshore
可以将@@
Imagine
西方人@@
和公司@@
备
补充
genome
服务于@@
募@@
civic
atism
适得其反
189@@
职责@@
underpin
里斯本@@
突出
变革的@@
肯定的
elimination
的家庭@@
换言之
devise
ternal
staggering
悔@@
Ministry
expects
concent@@
各类@@
避税@@
纠纷
制约
nominee
下一代@@
高昂@@
morally
Between
自卫@@
atives
芝加哥@@
假
政体@@
对日本@@
advertising
electri@@
的进步
出一个@@
边境
偏见@@
众多的@@
大体@@
intensifying
理想
清晰
empower
emphasizes
含义@@
Politicians
进攻@@
在那里@@
任期
并使@@
不啻@@
敌
ag
立法者@@
hood
financial-market
博弈@@
借口@@
这些因素@@
agers
能产生@@
exam@@
expose
死刑
fertility
卑@@
只有一个@@
专家们@@
quasi-@@
Goldman
revelations
accommodate
情况的@@
floods
applying
Scottish
linking
shareholder
物理学@@
Budget
仓@@
overhang
theoretical
应该成为@@
bright
对他们的@@
和他@@
颇有@@
灾难的@@
激怒@@
令人惊讶@@
contact
传染性@@
enly
所作@@
文件
非洲大陆@@
height
Lan@@
债权国@@
这一新@@
legislators
priori@@
adhere
奇迹
Por@@
上限@@
是与@@
non-proliferation
Wel@@
重建
paling
structured
执政党@@
良机
伍@@
teen
的措施@@
议员
discover
先例@@
Bang@@
durable
的全球化@@
一百@@
财富和@@
对其他@@
sentence
发自伦敦
hingga
fatal
偿付
implication
fostering
规模和@@
rat
恼@@
集中于@@
orable
season
Gal@@
村庄@@
十八@@
committing
endor@@
也已@@
巨量@@
嫌@@
面对着@@
路线
津@@
maximum
kondisi
包含了@@
sym@@
人心的@@
bangan
nightmare
advised
据称@@
民主国家的@@
参与者
定位@@
Celsius
疆@@
breaks
恐怖组织@@
固然@@
他们已经@@
organic
的角色@@
specter
forefront
商人@@
licen@@
变迁@@
intelligent
OMT
ek
弥合@@
成立的@@
现金
deciding
唐@@
Hindu
judged
mobilized
安倍经济学@@
国债
组
1981
concep@@
暴露了@@
ni
地面@@
铀@@
甘地@@
征税
技@@
Thai
的一小@@
appointment
妥@@
位居@@
rooms
残疾@@
国内外@@
奥运@@
远高于@@
受影响@@
dreams
品牌@@
财政状况@@
准则@@
entrepreneurial
发达经济体的@@
stu@@
ension
beautiful
helicopter
不可避免的@@
定向@@
lex@@
沿着@@
承诺要@@
习惯
兵
―
某些人@@
bru@@
iron
ambassador
Eurozone
辅之以@@
prejudic@@
Liu
客户
正好相反
gement
返回@@
应该将@@
外债@@
阐述@@
谷
ush@@
可能比@@
cross-@@
旱@@
报复
wild
accumulate
six-@@
解决的@@
充其量@@
eration
bulan
当权@@
indifference
这并不是说@@
宪政@@
tone
liberties
authoritarianism
升息@@
流行病@@
Earlier
immigrant
stalemate
霸权
journey
又会@@
identifying
Solidarity
活
lingkungan
东方@@
胜任@@
alli@@
终身@@
进程的@@
fast-@@
assertive
这一
参与到@@
失灵
determin@@
Venezuelan
存在的
disagreements
rebel
Ever
credits
Part
半年@@
支配@@
拉低@@
Soon
得主@@
我们能@@
贫穷
一座@@
价格上涨@@
追求
作物
补助@@
和英国@@
伎@@
sies
Fo@@
ик@@
发表了@@
变异@@
迈克尔
China-@@
surrender
人人@@
极高的@@
兼并@@
含义
但是如果@@
boys
demon@@
46
高昂
心脏@@
施罗德@@
repe@@
contributes
juta
径
care@@
美国已经@@
运转
既是@@
说到底
exc@@
在选举@@
卡拉@@
这段@@
normali@@
难民的@@
bakar
巴斯@@
又一个@@
drives
Force
interact
的必要@@
以实现@@
世界其他地区@@
Chicago
дар@@
induc@@
牺牲
事先@@
organ@@
integrating
寡@@
穆斯林兄弟@@
的移民@@
私下@@
GNP
fortune
limitations
伤亡@@
味
recapit@@
将不得不@@
Pl@@
Could
systematically
distressed
这就是为什么@@
遗憾的是
军队的@@
两项@@
疯@@
attraction
smar@@
competence
geography
失
政治家们@@
的成就
灵活的@@
评级机构@@
anyway
残忍@@
孟买@@
也不例外
时间里
Bac@@
1986
casualties
retail@@
Pic@@
Jer@@
align
myth
urged
预防性@@
意大利和西班牙@@
FSB
脊髓灰质炎@@
daughter
的概念@@
disagreement
contentious
escalating
这个国家的@@
tal@@
第一大@@
种族
manag@@
Services
仇恨
敞@@
bin@@
aby@@
burden@@
bom@@
梯@@
dissent
他们自己的@@
岁以下@@
provoke
巴罗@@
Mah@@
就是如此
concepts
加起来@@
insistence
这座@@
时常@@
reck@@
原教旨@@
voter
勉强@@
Human@@
某种形式的@@
相结合
方法是@@
Advis@@
歉@@
多人@@
公司在@@
的水@@
厅@@
sons
afraid
尽量@@
最贫穷@@
增长速度@@
Economist
广义@@
outlets
阻力
达尔文@@
得到解决
Roman
battles
examined
moderates
敢于@@
了解
房地产泡沫@@
business@@
PD@@
crip@@
更别@@
都与@@
incur@@
gy@@
外资@@
基因
失误@@
Vol@@
极少数@@
教学@@
intru@@
-sharing
7.5
好消息是@@
法定@@
touch
中国经济的@@
drops
触及@@
Eurobonds
这并不是@@
containing
谱@@
violated
独特的@@
率和@@
拉动@@
regards
并不像@@
专业人士@@
一只@@
much-@@
exercises
wan
凝聚@@
浮动@@
酬
slu@@
私有化
人工@@
一半的@@
kings
tindakan
寒@@
shop
的统治@@
法院
挥霍@@
了自己的@@
cynical
谓@@
知识的@@
tes@@
情形中
负有@@
exclu@@
tured
一张@@
主义者的@@
healthier
抑制
Rico
现在就@@
解决问题@@
此前的@@
感兴趣
详@@
金融机构
绝不会@@
思想的@@
议院@@
William
hearts
akibat
同样地
imperfect
dealt
权益@@
employ
赚取@@
watched
冰川@@
penyakit
web
端的@@
也十分@@
转
instruc@@
тың
deforestation
speculators
肝@@
public@@
技术上@@
布鲁@@
assessments
已久的@@
冒着@@
衡@@
anda
lay@@
foun@@
plight
yers
collapsing
ab
占比@@
Ale@@
dur@@
escalation
更多的人@@
dul@@
shoul@@
多哈回合@@
办公室
Offici@@
邻居@@
钉@@
求
uprising
主题@@
桑德斯@@
rub@@
ideo@@
赢家@@
drinking
麦凯恩@@
的经验@@
减弱@@
结果的@@
将有助于@@
cio
Mad@@
successive
个成员国@@
领导作用
零和@@
front-@@
consumed
suppress
多万@@
GCC
医保@@
举
Common
consuming
码
举例来讲
前所未有@@
难民危机@@
花旗@@
政府所@@
unfortunately
clearer
prescription
Syrians
thinkers
compelled
经济增长和@@
unrealistic
rejecting
broadband
苏联解体@@
应该为@@
的资产@@
畜@@
调节@@
el-@@
市政@@
IAEA
fly
Digital
成熟的@@
destination
Texas
Long
三次@@
许多
tie
结成@@
Mic@@
角度讲
Adam
1.8
让欧洲@@
就意味着@@
Maybe
风险和@@
gged
先决条件
三国@@
diagnostic
储备货币@@
SA
strains
belong
条件下@@
产能过剩@@
特权
breast
Rec@@
pendapatan
sciences
第三大@@
的比例@@
settling
光靠@@
氧@@
而是因为@@
大西洋两岸@@
preceded
甚至比@@
让步@@
做出反应
过程的@@
integral
任何人@@
引领@@
正常化@@
手段来@@
com
单一市场@@
talented
把这些@@
buruk
persists
计划和@@
ult
adverti@@
stro@@
的一年@@
韧@@
实现这些@@
Mohammad
radiation
caution
holes
悲@@
Amazon
bang
但他们的@@
安倍晋三@@
distorted
它能@@
Was
bukan
suc@@
fanati@@
稻@@
abad
dictatorships
Na@@
机会的@@
启动
为一个@@
鸟@@
的机构@@
publication
provincial
客观@@
蒂
floor
上风
Binyamin
赤@@
exhausted
revealing
Nowadays
美国也@@
怎样
头的@@
只有通过@@
降低到@@
把握@@
fallout
重要性的@@
presents
eption
征服@@
EA
incre@@
俄罗斯在@@
infection
土
tengah
患者的@@
以换取@@
inclined
初衷@@
国际合作@@
夏天
arkan
witness
开启了@@
负面影响
far@@
中产阶级
岛屿@@
就是在@@
questioned
发生过@@
consists
上面@@
历史性@@
尸@@
伊拉克人@@
restoration
1960s
波斯@@
包括在@@
swaps
富豪@@
shore
这些机构@@
api
counting
listed
unc@@
日本在@@
政策制定@@
燃料
vali@@
金融服务@@
听证@@
法兰克@@
tative
乙@@
anchor
耗尽@@
Rousseff
fulfilling
豆@@
里斯本条约
absurd
南北@@
阅读@@
打破了@@
districts
Sun@@
ane
戈尔巴乔夫@@
大声@@
penalty
洪水@@
Non-Proliferation
democrats
owe
眼下
reactors
Ottoman
Regardless
的意愿@@
众所周知
scarcity
irony
start-@@
orientation
accustomed
panel
劳
每个国家@@
并与@@
不足为@@
借贷
confirm
炸@@
burdened
credit-@@
stem@@
PBB
奥塞@@
yan
unthinkable
扰@@
不可避免
教条@@
文明的@@
食品和@@
8-@@
approve
parad@@
提高利率
peacefully
一个由@@
将以@@
businessmen
钓鱼@@
nit@@
奇迹@@
dog@@
emphasizing
看到的@@
名字@@
BJP
在上述@@
trade@@
辐射@@
heed
波罗的海@@
广受@@
0.7
branch
即便如此
痴@@
troubles
接下来的@@
\
摧毁了@@
moderation
有效的
需
看作是@@
确信@@
做出选择
RA
窥@@
可靠
治下的@@
anytime
Mas@@
领导人们@@
三分之一的@@
悬崖@@
领袖的@@
storms
剑桥
3,000
reaches
Poverty
leftist
生效
ier
zy@@
阴谋@@
买单
并确保@@
regulating
historians
马克龙@@
渺茫
编辑@@
maintenance
地带@@
交通
加勒比@@
赖以@@
Gülen
国外
也并不@@
Anti-@@
对比
swept
prog@@
序
affluent
食物
identi@@
desired
当地的@@
r.
影子@@
延缓@@
mann
援引@@
centrist
interview
money-@@
loyal
尽力@@
的领导下
美日@@
Fac@@
头上
them@@
这套@@
明星@@
со@@
会谈
每个人都@@
jurisdiction
连串@@
马里
东京@@
就一直@@
罹患@@
由此带来的@@
相似的@@
布什的@@
block@@
suspicious
Cru@@
pois@@
贫困线@@
做到
这三个@@
salaries
privati@@
遣@@
Deal
kel@@
stein
的人民
短
BI
轻易地@@
Yellen
心态@@
switch
的经济
予@@
马克@@
六个@@
gate
每一次@@
通常会@@
ген
秘书@@
180@@
候选人的@@
更像@@
而欧盟@@
特点
Att@@
tapi
postponed
Inte@@
环境中
但是这@@
perpetrators
这就意味着@@
大体上@@
expen@@
则会@@
寻常@@
Agenda
sebuah
台湾
实践
rivers
的1
tari@@
pered
既得利益@@
feder@@
证实
全部
lify
yielding
美国和英国@@
不断增加
Young
巴基斯坦和@@
履@@
sof@@
商品的@@
提议
escal@@
勒庞@@
的支持率@@
从美国@@
纾@@
铀浓缩@@
幻觉
terr@@
iz
astic
助于@@
ja
walls
onset
讶
将产生@@
括@@
enact
bonuses
流失@@
pemimpin
不振@@
本身的@@
规范
家园@@
而不能@@
的信任
revit@@
标题@@
scenes
走私@@
袭
complained
positioned
curtail@@
互联网
主办@@
空袭@@
Je@@
bahkan
radio
59
麦克@@
cin@@
mitting
giants
房子@@
破裂@@
肺炎@@
mitigation
孟@@
defeating
技能和@@
select
而受到@@
etc
面对的@@
主要是因为@@
拥护@@
achievable
的迹象
政治上的@@
我希望@@
20,000
质量的@@
公共政策@@
半数@@
organizing
remembered
贸易谈判@@
很久@@
实质性的@@
孩子们@@
misery
rounds
一百万@@
materi@@
淘汰@@
志愿@@
consecutive
Ca@@
interpre@@
chair
普京
Real
可是@@
筛查@@
无关@@
thwar@@
嚣@@
硅谷@@
反腐@@
patents
太大
minim@@
夸张@@
outh
世贸@@
Osama
tense
proposes
之多
非洲和@@
occasionally
开始了@@
中的
7月
彰显@@
trusted
争端
和谐@@
多样化
ыз@@
Florida
昔@@
扩大到@@
interactions
nuclear-armed
应该
旧的@@
comments
ght
tackling
exceeding
的国家的@@
也有助于@@
plot
内需@@
波斯湾@@
Cho@@
维持了@@
pt
必须与@@
低下的@@
他们希望@@
sor
Thir@@
去了@@
是否真的@@
控制了@@
va
本周@@
失去的@@
的领导人
仍然在@@
强硬派@@
企@@
温
reunification
dry
智力@@
乌干达@@
普遍的@@
obsolete
firing
推出了@@
maternal
承担了@@
automation
的方针
练@@
linkages
aga
Christmas
桌@@
公认@@
感谢@@
las
下行@@
take@@
statehood
恶性@@
opted
也随之@@
diam@@
动乱@@
modified
里斯@@
植根于@@
调整的@@
exhi@@
更强@@
一段时间
不仅限于@@
繁荣和@@
一国的@@
remedy
歌
了欧洲@@
甚微
tments
inde@@
果真@@
央行的@@
刺激计划@@
rivalry
流感@@
year-old
姗@@
演变成@@
之争@@
里夫@@
specul@@
dition
的城市@@
改善了@@
专利
爆发了@@
夫人@@
axis
为首的@@
len
bah
husband
Certainly
度和@@
推翻了@@
Arctic
Lim@@
明确的
大陆
Unemployment
何
varying
就业创造@@
strictly
引人@@
ph
gers
错的
委托@@
我们如何@@
oceans
sistance
6月
崭@@
regain@@
坚定的@@
其中大部分@@
cara
两个月@@
一倍
zero-@@
萎靡
自由主义
crimin@@
fol@@
户
维基@@
下降至@@
园
你
Ash@@
federation
populated
advocating
也是最@@
背道而驰
worrisome
strategically
一战@@
van
internally
Alexander
相当长@@
步伐
30,000
underestimate
triple
该如何@@
不平等性的@@
lucky
科学家们@@
收缩
救济@@
asc@@
马斯特里赫特@@
星球@@
也都@@
任何时候@@
在2001年@@
其领导人@@
thriving
segments
perceive
房地产市场@@
发行的@@
的可能@@
靠拢
doctor
宁愿@@
drama
记者
拒绝承认@@
起点
去杠杆化@@
rigi@@
替代方案@@
sle@@
master@@
identical
net@@
发的@@
民众对@@
BOJ
preference
courses
arning
律@@
iti@@
1992年@@
stars
但人们@@
第二次世界大战@@
radicals
这种方法@@
proceeds
自豪@@
etary
evaluate
scru@@
此人@@
存量@@
zero-sum
chron@@
欧洲需要@@
shment
inate
Libyan
channeled
带给@@
Eli@@
auth@@
看不@@
力度
扣
1994年@@
也有所@@
二次@@
终止@@
新兴市场
添@@
哀@@
irreversible
这方面@@
不惜@@
portra@@
人体@@
在那些@@
world-@@
不振
兑换@@
duction
识
却依然@@
体现
购
conceivable
origin@@
劣
流动性的@@
ostensibly
呈现出@@
眼光@@
肺@@
ua
讲述@@
ws
asive
京都议定书
司机@@
enormously
compatible
愈演愈烈
Andrew
必须通过@@
早在@@
Haw@@
Mitt
hearing
证券
subsidiaries
Invest@@
迹@@
准入@@
contra@@
put@@
flooding
可能让@@
enters
pris@@
total@@
必须是@@
alarm
timely
explosive
决定性的@@
获益@@
CP@@
扯@@
能够为@@
stimulating
Bon@@
EFSF
bail@@
旧
风暴
disgu@@
为1
careers
rid@@
有待@@
journalist
hypo@@
美国需要@@
惧@@
选举中
Conf@@
reminded
继续下去
被判@@
Hence
灌溉@@
discipl@@
safely
deliber@@
title
recipients
工作和@@
审查
属
ratification
las@@
五年
很显然
笼@@
金融市场
突尼斯
suspected
拉美国家@@
describes
reviving
超额@@
不去@@
operates
潮流@@
diperlukan
之间的关系
52
为欧洲@@
Bundesbank
猩@@
不断增长的@@
自动化@@
一种
invo@@
祸@@
Framework
jika
理所当然@@
0年代的@@
Muammar
dimensions
改良@@
sar@@
婚
脏@@
devote
ensures
rail
tingkat
comprises
fruit
execution
ester
Coll@@
nurture
卡尔
之道
ik
似乎正在@@
transitional
reformers
confusion
河流@@
prin@@
石油的@@
叙@@
1997-@@
加泰罗尼亚@@
resigned
后代@@
virtue
aissance
百姓@@
均衡
enders
购物@@
间谍@@
umental
literacy
想象的@@
execu@@
日本政府@@
crowded
精英阶层@@
阿卜杜拉@@
金融机构的@@
请
事的@@
很难想象@@
ady
organisms
国民收入@@
资本管制@@
的增加@@
瑟@@
Ve@@
climate-@@
Jazeera
宽松
能得到@@
卖
伊朗人@@
货物@@
tted
滑向@@
八十年代@@
tives
之内@@
这种方式@@
AT
proposition
加利福尼亚@@
不论是@@
的效果@@
gent@@
arming
executed
thro@@
G-@@
tis
Jika
在这样的情况下
无条件@@
茨
需求和@@
包装@@
1.7
人权和@@
他们就会@@
掩饰@@
明确地@@
黑人@@
候
maturity
中东欧@@
sweeping
战士@@
对峙@@
Guard
卡尔@@
它们必须@@
evolve
克格勃@@
lowing
区区@@
先进的@@
回购@@
Orbán
Imp@@
Iceland
genetically
声誉@@
theme
arians
aw
force@@
崇拜@@
添加@@
analogy
的反对
reinvigor@@
ba
容克@@
纲领@@
而我们@@
的人道主义@@
permits
保护的@@
жыл@@
对英国@@
obtained
сы
基督@@
在以色列@@
职务
特朗普在@@
Caribbean
的事件
ase@@
许多人认为@@
向来@@
包括对@@
元素@@
acks
proj@@
torn
形
let@@
tless
输家
fits
往
ino
50,000
可信的@@
tize
坚挺@@
和市场@@
fundamentalism
End
evasion
反驳@@
pressive
资产泡沫@@
pragmatism
替代品
empowerment
不平衡
上演@@
complementary
rying
福利国家@@
趋同@@
出色
致命的@@
中国共产党@@
三
页@@
成员的@@
迎合@@
党内@@
讨论的@@
私人投资@@
特权@@
意义上的@@
什么呢
落后
回了@@
如果政府@@
国和@@
六个月@@
柏林墙@@
先是@@
话语@@
溢价@@
归属@@
流程@@
Sand@@
Jan@@
undertaking
appoin@@
同胞@@
渔业@@
本质
经济改革@@
系
债务水平@@
Ir@@
aren
洋
гі
lit
capital-account
联系起来
influ@@
hostage
tenaga
一笔@@
dious
较少@@
explanations
当美国@@
出人意料@@
tif
oted
Dil@@
public-private
不具备@@
即便在@@
的理念
golden
银行体系@@
penge@@
迭@@
深感@@
tational
动荡的@@
爱
jan
发动了@@
fuse
对我@@
的胜利@@
那次@@
可言
liver
一样的@@
实际上是@@
了这一点
别无@@
three-quarters
这一战略@@
俄国
可能带来@@
登
kini
正规@@
languages
墨西哥的@@
抬头
slow@@
woes
sured
太空@@
鼓动@@
保守主义@@
由
跻身@@
正在进行@@
incidents
低效@@
immunization
想让@@
um-@@
脆弱性
exporter
不难理解
观点的@@
遭受的@@
朴槿惠@@
grid
十年前
叶
在现实@@
人民币
outsourcing
世人@@
远的@@
corporate-tax
罕@@
Carmen
拼@@
impeding
沙漠@@
话题
anticipate
destabilize
弹性@@
继任@@
Jong-un
研究和@@
Leaders
unleash
的立场@@
因此在@@
industri
经验的@@
ratify
oming
vity
stered
54
peas@@
副作用
的联系
制度性@@
交换
公共财政@@
Contrary
必须将@@
亚洲基础设施投资@@
再到@@
定在@@
丘@@
居民
这一现象@@
posing
repres@@
J
所带来@@
悠@@
sher
witnessing
arri@@
冷战结束@@
成百上千万@@
twenty-first-century
摇摆@@
阀@@
真
loved
mampu
而他@@
toral
4.5
Mohammed
1.1
dent
长期
ensuing
Intelligence
financial-sector
peac@@
利益相关@@
colum@@
pledges
发病@@
surpassed
输
重演
环境下@@
tled
线的@@
fleeing
Across
organizational
де
composed
detail
spike
这种说法@@
在美国的@@
alcohol
塞尔@@
silver
应对措施@@
wherever
保住@@
Turks
eping
高级官员@@
通货膨胀率@@
赶超@@
passive
演
一直以来@@
reap
克里米亚@@
印尼
呼吁
欧洲安全@@
有利的@@
disproportionately
comply
ries
jail
战争和@@
再平衡
dates
forecasting
然后
转移支付
curricul@@
尽管美国@@
既没有@@
华
可预见的@@
plunged
管理层@@
罪犯@@
出任@@
competi@@
anxious
人力资本@@
喊@@
分析家@@
没有哪个@@
遭受了@@
支撑
课
最优@@
步入@@
的直接@@
和解
affor@@
包围@@
Timur
亨利
应该由@@
获益
加纳@@
驳@@
个国家
58
Overall
2005年
将受到@@
超越了@@
曼德拉@@
能量
82
Never
略微@@
为世界@@
检察官@@
归结@@
俄罗斯总统@@
cau@@
scor@@
pic@@
重获@@
troubling
Home
rebuilding
tened
股份@@
nal
subsidized
诺
peror
lights
hel@@
mail
在196@@
Equally
低估
1993年@@
声称
和医疗@@
定价
慎@@
puan
逆差@@
Caucasus
世界中
shouldn
并导致@@
欺诈@@
desi@@
tar
灾
也只能@@
作为其@@
地在@@
Trichet
预期的@@
P5
gang@@
振奋@@
失控@@
stration
在短期内@@
MF@@
verse
lak@@
金融改革@@
母
advis@@
禁令@@
捕捉@@
多样性@@
经历过@@
宫
危机和@@
passage
sionist
sun
我们是@@
至少有@@
refuses
倍多
cumulative
折
错误地@@
的问题上
比如说@@
ao
提倡@@
鲸@@
sey
avoidance
greed
classified
mut@@
不喜欢@@
2009年
也越来越@@
对世界@@
将有@@
教科书@@
在短期@@
以色列和巴勒斯坦@@
一揽子@@
对策
equi@@
伦齐@@
敌意
POR@@
ESM
speaks
stre@@
社会民主@@
发生的
爱尔兰和@@
Olympics
unwillingness
发达经济体
peacekeeping
Transatlantic
habit@@
warga
为之@@
占到@@
移
保险公司@@
leum
冻@@
人们认为@@
惠
ordin@@
pain@@
loaded
驱动
增值@@
凸显了@@
ached
在那@@
中国与@@
中间派@@
қа
博客@@
violate
atur@@
tig@@
recyc@@
double-digit
pipelines
tables
ati
understandably
遭遇了@@
scandals
vention
可能已经@@
卢拉@@
疗法
南极@@
嘲@@
nis
了这个@@
Fron@@
喝@@
更有效@@
界的@@
dic
Six@@
不动@@
丹麦
quietly
Criminal
队的@@
不被@@
native
correlation
原教旨主义@@
Historically
领
建
attended
罗纳德
裂
sex@@
粮食
multiplier
家园
变得日益@@
EL@@
油气@@
还为时@@
时机@@
其他的@@
意思@@
金融企业@@
万美元@@
plo@@
BoE
inflic@@
宪章
broaden
customer
诽谤@@
感情@@
人工智能@@
导弹防御@@
三种@@
但与@@
Gre@@
细胞
coinci@@
举行
金属@@
Environmental
HP@@
che
保护主义
globe
Communism
大部分人@@
但是他们@@
cements
亚的@@
freer
可以是@@
一个国家的@@
porting
Using
rapprochement
让经济@@
matched
比利@@
恰好@@
aian
cess
Cur@@
Sen
鱼
Facility
宽带@@
indebtedness
illing
polar@@
univers@@
食
只是在@@
Managing
合作和@@
ту@@
而如今
太大@@
介入
相提并论
rebound
没完没了@@
ren
earning
债务人@@
denounced
替换@@
道歉
realism
Carney
成立一个@@
八年@@
color
伯格@@
blog@@
气候
提供资金@@
profoundly
锋@@
部族@@
systemically
全球治理@@
Liberation
crunch
Water
喘@@
的理解
在应对@@
BC@@
crossed
者在@@
embargo
量化@@
发展中经济体@@
consequential
à
讲话
有力@@
从经济@@
不时@@
Hen@@
涌现@@
possession
的大多数@@
在伊朗@@
的人口
响
bo
fts
тын
aug@@
所说@@
给美国@@
上周@@
Direc@@
的一个重要@@
燃煤@@
之久
derived
adds
ute
几年中@@
持
略
Building
便已@@
DS
gul@@
也不应该@@
停留在@@
乳腺癌@@
隐瞒@@
数额@@
modernize
过度负债@@
Paul@@
Petro@@
世界卫生组织@@
70年@@
起诉
付出代价
初步@@
自民党@@
Silvio
殆尽
原先@@
enjoys
彻底的@@
刑
成为全球@@
最令人@@
剥夺了@@
view@@
顾问
艺@@
它已经@@
研究表明@@
Commun@@
潜力的@@
MI@@
转型的@@
Intergovernmental
能以@@
的担忧
态势
excluding
平民
核子@@
anis
如果有@@
细节
ateful
巴勒斯坦
但是却@@
transl@@
整个世界@@
还可能@@
refin@@
prevails
decentralized
重于@@
description
upside
北约的@@
取消了@@
appearing
ñ@@
上都@@
症状
更加难以@@
右派@@
ó@@
tarianism
而他们@@
adapted
各不相同
Obamacare
pac@@
owner
же@@
营商@@
oppression
Sadly
将如何@@
国家政府@@
Tengah
correction
优质@@
Kissinger
种子
四大@@
过往@@
picking
无疑是@@
充满活力的@@
constituencies
至
boom@@
葡萄牙和@@
是他们@@
几位@@
街
75@@
版本@@
役
liberation
pluralism
迅@@
tt
保守的@@
重大影响
位的@@
dubbed
reassuring
throw
ге@@
盘
Oc@@
这将是@@
更强的@@
Canadian
黑客@@
Br@@
但该@@
观众@@
的担忧@@
Star@@
constraint
盟
conclu@@
sn@@
最早@@
stopping
gic
paralyzed
焦虑
俱乐部
pable
Air
成效
130
88
的货币政策
初的@@
经济学家们@@
profli@@
vocal
可持续
打消@@
sent@@
共和国的@@
erring
拉加德@@
Around
还远未@@
iding
规
私
Wilson
其国内@@
employee
particles
想起了@@
butt@@
产出的@@
解决问题的@@
约束力的@@
F.
服用@@
神秘@@
not@@
引向@@
一小撮@@
实行的@@
幽@@
共产@@
占领
spin
deal@@
minute
conditionality
shocking
repeal
关闭
发现自己@@
所获得的@@
miliar
Zhou
lear@@
哲@@
从长远@@
一面@@
alled
巧妙@@
世卫组织@@
狼@@
complaints
ü@@
conven@@
的不满
itas
borrow@@
absolutely
delegation
离开
布什
为首@@
tep@@
洲
mire
entitlement
ment-@@
所引发的@@
前就@@
范式@@
інде
shments
persecution
petition
жо@@
bet@@
背景下@@
fam@@
特别是对@@
Uber
比以前@@
哥
Medic@@
因此我们@@
moreover
哈马斯
heated
受损@@
也不太@@
trees
portfolios
succeeds
2008年全球金融危机@@
herself
凌驾于@@
quantities
新兴市场经济体@@
anticip@@
赤裸裸@@
nasional
几十年
大战@@
dor@@
后者
治愈@@
合作伙伴
国家利益@@
不可持续
大革命@@
原材料@@
contam@@
rs
床@@
双边贸易@@
流亡@@
30年
其后@@
久的@@
包容
idity
道理的
restructure
tized
ақ@@
工业
比喻@@
界定@@
远远超过@@
坚持认为@@
悲惨@@
盯住@@
ffs
事务的@@
辞职@@
second-largest
dose
称的@@
agreeing
十多年@@
social-welfare
才能够@@
极端贫困@@
美国必须@@
慕尼黑
officer
VI@@
OM@@
oni@@
防范@@
耸@@
菲尔德@@
汇款@@
常态
随之而@@
而该@@
炎@@
夜之间@@
depositors
graduate
associ@@
six@@
IT
defended
什么样@@
等级@@
efficacy
lag
延迟@@
unavoidable
alizes
德国总理@@
mus@@
omin@@
人均GDP@@
registered
clou@@
斯蒂@@
homeowners
Sta@@
出发@@
bridges
neo@@
és
究竟是@@
发出了@@
eted
ceremon@@
shops
之比@@
Ari@@
美国正在@@
doomed
inal
influx
condem@@
resemble
聊@@
ero
越来越多的人@@
visions
当局
urs
愤怒的@@
resume
ugly
的头@@
不复存在
specialized
体重@@
佛罗里达@@
在巴勒斯坦@@
Deut@@
Madrid
ұр@@
stores
流失
迈进
人们可以@@
接入@@
1929
普通民众@@
prec@@
撤军
吉
wasn
携手@@
opinions
在法国@@
PC@@
的理念@@
申根@@
es-@@
削减了@@
ound
界限@@
SD@@
常常被@@
做什么
仗@@
在欧元区@@
妹@@
好比@@
口头@@
任职@@
hed@@
enthusiastic
肺结核@@
看护@@
伊斯兰主义者@@
只有1
2.3
huk@@
ush
taan
loses
Feder@@
小组
管理和@@
war-@@
金氏@@
Ten@@
asu@@
incident
极端的@@
onymous
令其@@
这一问题的@@
Malaria
高涨@@
dek@@
作战
capacities
Rel@@
也曾@@
束缚@@
判
阐@@
吨
施压@@
ishing
瓦解@@
incurred
hero
绘@@
原因很简单
呼吸@@
antara
春天@@
等其他@@
的斗争@@
苏联
CCS
salah
俄罗斯和中国@@
独立性
象棋@@
得起@@
大规模杀伤性武器@@
把钱@@
dee@@
最大化@@
emit@@
headwinds
arrival
涂@@
xing
待遇@@
冲突中@@
轨道@@
PLO
wr@@
十分困难
stum@@
US-China
桑德@@
汇
chemicals
不善@@
或许可以@@
距离
clin@@
mitigating
小规模@@
可行
Black
莱斯@@
zers
questioning
aspir@@
报导@@
箭
symbols
普罗@@
种族隔离@@
党派
千年发展目标
ported
rows
古典@@
卢卡@@
王
名为@@
最低工资@@
plagued
仍然没有@@
增强了@@
generational
引出了@@
舞台上@@
问责
在大多数@@
defenses
该机构@@
犹太人的@@
正
注意力
Shi
Kac@@
任务是@@
acquies@@
扮演着@@
free-@@
基辛格@@
事实证明@@
detention
做到这一点
元
先发制@@
满
不断的@@
personality
佛
而德国@@
markedly
eral
trage@@
rul@@
surrounded
gor@@
离岸@@
Mil@@
butuhkan
除外
和支持@@
巴尔@@
mistaken
Diplom@@
dor
国会议员@@
在大部分@@
sung
Cultural
gay
为什么要@@
失败了
驱使@@
沿岸@@
接触
和家庭@@
武装
distribu@@
意志@@
抗击@@
inist
罕见@@
小额@@
铜@@
headquarters
busy
顺利@@
Hum@@
commer@@
感受@@
自然
是一次@@
pessimism
vege@@
lified
acious
各国
ules
da@@
西非@@
被允许@@
mele@@
让所有@@
体面@@
正常的@@
几百@@
贫富@@
幸存@@
的主权@@
以支持@@
great@@
艘@@
受损
宏大@@
capitals
Rob@@
ighting
bad@@
master
截至@@
真实
child@@
叫
Resolution
lack@@
2000年
明智
insurgents
只在@@
transferred
蒙蒂@@
对象
将增加@@
Stiglitz
数十万@@
财政整合@@
衔@@
disorders
treasury
市场力量@@
理解的
试图将@@
和日本@@
Mem@@
directors
fragility
lembaga
Individu@@
relentless
睁@@
Leone
附带@@
不禁@@
你会@@
reactor
的部分@@
美国是@@
mengalami
buff@@
球员@@
从一开始就@@
其政治@@
拓@@
空军@@
hec@@
显示了@@
课程
前提
和国内@@
高盛@@
Olmert
Poles
大公司@@
та
最大化
param@@
生态系统
蕴@@
令人失望
design@@
vul@@
悖论
amm@@
公投
也面临着@@
真空@@
bud@@
环境和@@
antibio@@
说过@@
几年前
正好@@
亚马逊@@
聘@@
10月
perdagangan
的首@@
克尔@@
检验@@
迟迟@@
refrain
将他们@@
累计@@
诉
low-
confused
的不是@@
而感到@@
联邦储备@@
acu@@
unhappy
cali@@
群岛@@
terus
entertainment
ely
56
discount
nes@@
discussing
wouldn
sympathy
职能@@
amed
翻番
支持和@@
论点@@
embassy
mud@@
inspiration
并不令人@@
世界上最大的@@
erred
isasi
联合国秘书长@@
可再生能源
臭@@
Rising
AI
分钟@@
逃
中的一@@
restricting
出口国
zo@@
但又@@
训练
four@@
高效的@@
辱@@
ague
领导下的@@
watch@@
服务提供@@
green@@
pulled
可以帮助@@
中印@@
repayment
von
Modern
enshrined
对中国的@@
CB@@
阿尔巴尼亚@@
enriched
纯属@@
War@@
кер@@
ай
创始人@@
国民阵线@@
classical
兜@@
高加索@@
坚守@@
的不确定性
perekonomian
reformed
整个地区@@
replic@@
agrees
从而为@@
舞台
警察
water-@@
Daniel
aca
一小@@
握
repressive
一个新@@
bat
已经取得了@@
glut
oldest
众所周@@
也并非@@
肆意@@
pun
Non-@@
北约
72
demonstrators
的非洲@@
必须
precious
myster@@
收取@@
不一定@@
inhabitants
观看@@
的另一个@@
夫妇@@
签证@@
累
能给@@
procurement
据估计
lagi
ardo
2.2
福祉
兆
域
代人的@@
比如在@@
sk
推特@@
研发
东道国@@
依然存在
尽管这一@@
决策者
吸纳@@
ulation
vo
我是@@
宣布了@@
band
MUNICH
ulted
1987
vis@@
贿@@
decides
您@@
College
birth@@
丈夫@@
特别是考虑到@@
innovate
announce
Corbyn
MD@@
Cal@@
near-zero
well-known
脂肪@@
associations
Jor@@
还未@@
98
也不愿@@
mulai
矛盾的@@
sad
菲尔@@
传染病
际
破坏性的@@
mine
blueprint
startu@@
死灰复@@
加强了@@
一批@@
supervis@@
萨尔@@
900@@
随着时间的推移
compounded
100年@@
outweigh
бер@@
Sharif
夷@@
产量的@@
的大型@@
tified
tighten
砍伐@@
accusations
这使@@
贿赂@@
授权
brother
妇女的@@
保健@@
百分点
饥@@
thin@@
巴沙尔
的极端@@
认真对待@@
极
小说@@
Karl
Sierra
里约@@
效率的@@
悬@@
促进了@@
对政治@@
的儿童@@
罗夫@@
唯有@@
施压
Priv@@
而政府@@
SDG@@
000
尽管他@@
完善
平方@@
的年轻@@
skill@@
家人@@
Sor@@
patience
CEOs
ensi
不在于@@
国民债务@@
destabili@@
引入了@@
民粹主义的@@
可以以@@
意识
叠@@
前所@@
reversing
医疗卫生@@
遥远@@
insists
领导者@@
Bahrain
希腊债务@@
加工@@
戈登
自由化的@@
四分五@@
materialize
Plan@@
英雄
tivity
总体上@@
参考@@
缪@@
更有效地@@
发生了
法国和德国@@
invisible
provoked
aper
assist@@
站出来@@
次贷@@
debated
医院
2.6
来了
仅靠@@
Less
餐
5月
SN@@
privilege
敏感
艇@@
hel
主导地位
measu@@
人心@@
tiga
suring
too-@@
它们将@@
hardest
ruler
recipient
金额@@
кел@@
collected
cigare@@
kit
加沙的@@
verge
无关紧要
高企
forthcoming
taxing
所指出的
serv@@
sical
解雇@@
accidents
unanim@@
指出了@@
он@@
大衰退@@
窄@@
自上而@@
micro-@@
ok@@
figh@@
于此
始作俑@@
特点@@
holy
97
沾@@
pangan
Gülen@@
tious
laying
laut
kly
病毒
宪法的@@
Pal@@
Representative
总之
exile
turally
stabili@@
compromised
马来西亚
eting
36@@
NT@@
创造的@@
三驾马车@@
bas
明智的
Wolfgang
everyday
visiting
would-be
tighter
volunte@@
Jap@@
gir@@
多大的@@
住房
less-@@
lance
章
Jiabao
surging
kurang
很高的@@
她在@@
havens
因为美国@@
20年
驾驶@@
泰米尔@@
更有效的@@
正常化
observ@@
要对@@
总需求
Wa@@
predicting
问题和@@
鸦片@@
剩@@
的复杂@@
discrimin@@
达成协议@@
德黑兰@@
万个@@
manufac@@
stagn@@
fas@@
蒙特@@
slaughter
谦@@
able-@@
作为一种@@
戈尔@@
transi@@
olu@@
文学@@
而与此同时
都非常@@
也出现了@@
在今天@@
转为@@
的概念
comfor@@
的投资
studying
resor@@
moments
不成@@
实证@@
被控@@
这样的国家@@
flag
原有@@
Pad@@
ights
产权
prestige
consultation
inte@@
recommend
Persian
的监管@@
humili@@
地球上@@
最需要@@
超级大国
忠实@@
达成共识
deep-@@
目前为@@
的土地@@
lesser
一个月@@
embodied
的讨论@@
理查德
临界@@
劣势
大受@@
orthodox
其他许多@@
猎@@
对该@@
edit@@
disper@@
reminiscent
evidently
crossing
corresponding
unt
impending
Bag@@
conferences
mad@@
leveraging
FTA
军费@@
一个关键@@
的教育@@
婴@@
举行了@@
plau@@
handled
ence-@@
倘若@@
glo@@
加尔@@
作品@@
prediction
impasse
setiap
ith
听
还有很多@@
repercussions
耗资@@
军事行动
粮@@
负利率@@
standar@@
钦@@
jauh
那就@@
ward-looking
把他们@@
Little
不仅包括@@
ch-@@
这样一来
困扰着@@
tek@@
避开@@
说得@@
单位
D.
创伤@@
conducting
newcomers
oph@@
promotes
关于如何@@
proximity
秀@@
一边
amounting
用作@@
inward
复苏的@@
访问
Self-@@
labor-force
盈@@
界限
誉@@
boon
支付的@@
连锁@@
在过去
cent
Jean-@@
时间和@@
prohib@@
ores
模糊
提案
季度
alis@@
akes
Kashmir
led@@
失业和@@
Pow@@
vaccination
posts
web@@
贬@@
自豪
茶@@
as-@@
untun@@
民主化@@
金斯@@
rier
平均水平
doc@@
GF@@
Main@@
因其@@
Armenia
pest
落到@@
penalties
通用@@
不敢@@
categories
不让@@
cosmopolitan
hosted
Y
depri@@
但这是@@
的公民@@
Fifth
Jintao
intervened
罗塞夫@@
visits
drew
正面临@@
调停@@
Osborne
Area
攀升@@
热烈@@
自由流动@@
不平等性
也使@@
环境保护@@
detect
deple@@
用途@@
2.7
中介@@
恐吓@@
kuat
波及@@
elu@@
以来一直@@
成长
Marx
关塔那摩@@
波兰和@@
Den@@
地使用@@
夺取@@
Concer@@
abu@@
sugar
厚的@@
ік@@
en-@@
hang@@
马丁
每月@@
side@@
涵@@
如此多的@@
1962
米兰
这
Pakist@@
尼日利亚
抑郁症@@
mount
高涨
不亚于@@
私人部门的@@
conception
Uribe
»
这显然@@
在一年@@
周年纪念@@
cukup
José
varieties
带动@@
提出的
氦@@
modernity
intervening
rigorous
ily
首尔
债务国@@
LDP
1933
exceptionally
throwing
tiz@@
脉@@
反之
chess
的货币政策@@
Cy@@
而不会@@
mengha@@
而对于@@
enhan@@
装备@@
北部的@@
览@@
disil@@
enrollment
fixed-@@
玉米@@
决策的@@
但最终@@
投向@@
范围内的@@
d-up
勇气
fro@@
preh@@
civilizations
industri@@
绕过@@
在巴黎@@
残暴@@
协会
丝绸之路@@
«
SMEs
在面临@@
沃
译@@
来支持@@
屠杀
用途
氧化@@
呼
取代了@@
environments
blun@@
有组织@@
经费@@
和以色列@@
架
过时的@@
archy
积
Harry
steep
公立@@
欧洲国家
驯@@
bangkan
outlays
sized
今
不为@@
形成一个@@
opt
exported
而无法@@
conspiracy
spar@@
几十年的@@
亲眼@@
丧失了@@
supportive
illiter@@
四处@@
输送@@
典范
世纪的@@
互联@@
领导力
four-@@
疑问
向下@@
我和@@
Left
plu@@
由此产生的@@
yn
旅游业@@
飘@@
总数@@
enth
arities
SP@@
中指出
Orthodox
Taylor
mal
烦@@
描@@
complain
印度政府@@
四倍
Small
Selain
АҚ@@
tants
2006年
动物
二氧化碳
坏消息
denom@@
连贯@@
的经济和政治@@
信念
做些什么
plane
无异于@@
bes@@
gathered
Ryan
破裂
inning
personally
总而言之
脆弱性@@
波特@@
在哪里
苦
之争
hable
下跌了@@
farms
时就@@
健全@@
和世界银行@@
英国选民@@
需要时间
parent
有足够@@
左翼联盟@@
dictate
highlighting
Anyone
第二种@@
节目@@
在我看来
没有被@@
和美国的@@
rocket
发现的@@
占世界@@
高得多
挤出@@
认为这是@@
celebrated
高官@@
memberikan
侣@@
还要多
precautionary
指引
廉
baha@@
incompetence
以及如何@@
Narendra
cular
我也@@
对这种@@
部分是因为@@
小泉@@
为全球@@
radicalism
scri@@
有责任@@
会增加@@
持怀疑@@
ttle
shocked
跨太平洋合作伙伴关系
中日@@
但政府@@
营利@@
intra-@@
Pan@@
的条件
一代人@@
58@@
papers
Higher
rebalance
clashes
CL@@
弹道@@
没
ting@@
表态@@
生育率@@
边缘化
technically
elevated
相结合@@
sider
世界银行
也最@@
compli@@
assass@@
1978
所要@@
公路@@
ex
取得进展
asset-price
来的
sacrific@@
抚@@
diet
都可能@@
annexation
ree
fig@@
灭绝
Major
行不@@
un-@@
thesis
abe
pathy
DD@@
莫拉@@
出口商@@
羊
阿里
3.2
贫民@@
Failure
лар@@
他已经@@
越
饥饿
贫穷国家@@
overhaul
所有者@@
国际机构@@
Securities
出一@@
方面取得了@@
宗教和@@
quanti@@
倒退
的人都@@
bans
将注意力@@
havoc
饱@@
南美@@
Tehran
有多么@@
回答
Kem@@
swit@@
vel@@
埃尔
共产主义的@@
政策制定者们@@
ensured
Shin@@
vest@@
心理
越多
invaded
这并非@@
欧佩克@@
critically
ticul@@
快于@@
咖啡@@
dle
backdrop
官僚
thir@@
在联合国@@
不定
dow@@
但欧盟@@
对美元@@
Gil@@
nearby
茶党@@
手里
已经发生了@@
ly-@@
notorious
alty
Lagarde
可比@@
在被@@
depended
保持了@@
完全可以@@
即使是在@@
princi@@
guiding
道理@@
Cypriot
较高@@
discouraging
政客和@@
fulness
enu@@
民粹主义
siveness
tyranny
登上@@
主要经济体@@
berkelanjutan
以美国@@
се@@
经济和金融@@
deceler@@
的时期@@
数以百万@@
Shah
异见@@
的某些@@
unde@@
并开始@@
背叛@@
criticize
turnout
媲@@
奴隶@@
defa@@
stan
realizing
supervisory
转化@@
ance@@
intractable
失误
brigh@@
1920
frozen
史
截然不同
tikan
cel@@
promin@@
symptom
仿佛@@
frequency
犯下的@@
酵@@
tains
的未来
认识到了@@
工厂
punished
duration
科斯@@
所造成@@
令人瞩@@
administrations
skin
前所未@@
NCD@@
pleasant
缅甸的@@
mi
Hungarian
convention
困境的@@
guns
姐@@
的西方@@
onal
spurring
Credit
合约@@
眼中
确保了@@
的一半@@
refer
随后
好得多
掌握了@@
有任何@@
sta@@
工资增长@@
十年期@@
披露
navigate
里克
brothers
balance-of-payments
广泛
四分之一
habi
远程@@
是基于@@
欧元债券@@
Eventually
减少对@@
warn
的不同@@
恐怖分子
宏大的@@
的目的@@
class@@
functional
Naz@@
生产率和@@
正义
人被@@
血液@@
倡议
秘书长@@
的俄罗斯@@
engineer
史蒂@@
话题@@
左右的@@
缩小
赶上@@
卓越@@
癌症
比较
克尔
Inequality
floo@@
bac@@
我们不应该@@
govern@@
免遭@@
flying
宣誓@@
经济增长率@@
多达@@
MIT
discre@@
judgments
节能@@
metaphor
penetr@@
ent-@@
和发展中国家@@
在日本@@
不久前
preoccupied
在未来十年@@
demonstration
莫斯科
但正如@@
rain
ral
Bas@@
撼@@
constructed
政府债券
accommodation
其他任何@@
研@@
非政府组织
并不总是@@
merits
install@@
时至今日
echo@@
ö@@
inconsistent
重点放在@@
superiority
宗教信仰@@
NP
sebagian
tton
发生变化
intern@@
罢了
tude
大都@@
不稳定的@@
并要求@@
放宽@@
下属@@
的过程
ú@@
contradic@@
的不满@@
自由地@@
submitted
产品和@@
disposable
玻利@@
欧洲和美国@@
planes
滥用
Clo@@
名义利率@@
aturan
调和@@
并非所有@@
的好处@@
套
kingly
便利
Ibrahim
majorities
集体行动@@
Pas@@
2009年的@@
trillions
的好处
绝
同期@@
reformist
亚投行@@
并由@@
尼尔
之于@@
资深@@
老板@@
diri
在家@@
Gore
ыр@@
distinguished
unchanged
ification
攫取@@
nel
对立
以其@@
messages
十年代
怕@@
中立@@
转折点
构想@@
broker
许多国家的@@
犹太复国@@
1988
reform@@
undervalued
远远超过了@@
subjected
susceptible
thered
可能无法@@
ano@@
irrigation
做出
世界中@@
走到@@
制造
kemiskinan
的大选@@
prosecution
欧盟必须@@
采取更@@
diversified
菲律宾
1996年@@
欧盟委员会主席@@
cepat
illnesses
每周@@
publish
联邦基金@@
永远是@@
loom
直至@@
经济发展的@@
mic@@
塞族@@
Regional
监狱
无法通过@@
映
八国集团@@
仲裁@@
shale-@@
是由于@@
的代价@@
el-Qaddafi
警惕@@
blessing
atist
籍
多数的@@
liter@@
Liberia
关乎@@
基础设施投资
Kel@@
unfolding
世界大战@@
supp@@
decreased
和资本@@
prob@@
言辞@@
objections
fted
river
尊敬@@
后才@@
repaid
apping
extraordinarily
developing-country
screening
бола@@
u-@@
但上述@@
还存在@@
袋@@
期货@@
aliz@@
越是@@
良多
bent@@
伊朗核计划@@
than@@
将超过@@
staun@@
蓝图
这家@@
prohibited
-country
expressing
会晤
牛津@@
虔诚@@
两人@@
获
passes
prescri@@
照片@@
Sovere@@
束@@
5,000@@
privileges
searching
的年度@@
三角@@
利益集团@@
视作@@
suppression
frame
barrier
官员的@@
ender
竭尽@@
社会中@@
arena
遥远的@@
这笔钱@@
化石燃料
cooper@@
颈@@
政府与@@
几年的@@
临近@@
£
Vo@@
rules-based
停
第一位@@
terbesar
诡@@
shi
境地
Cro@@
hub
stunning
uma
proves
allegations
geographic
erial
Lor@@
准确
boats
疫@@
Citizens
侵犯
sip@@
1972
抑制了@@
Emer@@
Fu@@
蔓延到@@
abo@@
UK@@
shame
不会在@@
经合组织国家@@
容易受到@@
Employment
克林顿
从而在@@
disen@@
新西@@
妙
盛
1985
bus
又在@@
和货币@@
outsize
世界货币@@
进行过@@
impeded
疑虑
tail
guess
shly
admission
HONG
realm
来帮助@@
Jeremy
tendencies
-2
loosen@@
密的@@
郊@@
反过来
rist
unfortunate
Technology
rist@@
mad
和东@@
substantive
pile
有所增加
raft
fans
complement
astoni@@
Wah@@
1968
questionable
About
亚太地区@@
伊
正常
合并@@
班加@@
齿@@
博士@@
教授
realization
Looking
嘉@@
Twitter@@
hardship
但仍然@@
责
beneath
可悲@@
Control
utama
能源价格@@
竟然@@
іне
热门@@
坚定地@@
全职@@
创造一个@@
bear@@
急
annu@@
贫困国家@@
threw
qualities
Sunni-@@
agent
securi@@
full-time
勃
uncomfortable
KONG
生计@@
yat@@
而导致@@
synthetic
domination
倒退@@
邮件@@
到2020年@@
0.1
ым@@
强烈反对@@
瞩@@
的失败@@
Gener@@
dirty
的选票
压抑@@
inflation-@@
taxed
PC
慰
lifestyle
相关利益@@
的经济政策@@
了这种@@
应该如何@@
剔@@
1日@@
mengenai
令人不@@
broad-based
可见
acknowled@@
depres@@
grams
oligarchs
ingredients
医疗和@@
肾@@
能将@@
发言权
巴拉@@
时机
赏
他们没有@@
去监管@@
乌托@@
持久
流入
印度尼西亚@@
亚洲金融危机@@
delicate
ayaan
很快
Affordable
Jong-il
clever
反过来又@@
ampnbsp
takeover
达成一致@@
的信誉@@
罪名@@
步伐@@
其主要@@
Bhutto
liquid@@
custom@@
outw@@
病的@@
买卖@@
钞@@
Varoufakis
振兴@@
resid@@
富兰克林
exclude
vers@@
我们从@@
proceedings
compe@@
inner
二氧化碳的@@
伊斯@@
说他@@
如果
电池@@
Universal
一句@@
与其说是@@
mists
这一目标
飞行@@
会引发@@
tuberculosis
或多或少@@
macro-@@
i.e.
路易@@
我认为
鲜
核弹@@
s.
挖@@
母亲
cry
Strategic
sad@@
被忽视@@
美国所@@
游击队@@
bott@@
bank@@
但它们的@@
刻意@@
德国经济@@
对冲@@
壤@@
汗@@
纺织@@
asym@@
ressive
来维持@@
path@@
则被@@
reinforces
nation-states
的生活
那以后
如果这一@@
多样化的@@
continuity
alam
从长期看
麦肯锡全球@@
basically
无助于@@
这种观点@@
的人群@@
plunge
val
偏好
Koizumi
rebellion
refl@@
futile
弊
income-@@
mentary
symboli@@
device
disorderly
坠@@
总统和@@
建制@@
Haram
的思想@@
Executive
veter@@
establi@@
习惯于@@
就不能@@
C.
overdue
西亚
救命@@
希腊退出@@
向世界@@
measuring
hole
布托@@
NCDs
要将@@
pin
晋@@
在最@@
推翻
supplying
战场@@
法治精神@@
独裁者
mengurangi
matic
Critics
尽管中国@@
的立场
recipro@@
说服力
endemic
Greater
sequence
霍尔@@
percent
sensitivity
mosqu@@
buffer
disg@@
折磨
MGI
erous
Jim
的难民@@
而这正是@@
哥伦比亚
役@@
tissue
工作时间@@
15-@@
tantangan
charismatic
Recon@@
琐@@
电信@@
为一@@
驻扎@@
这些新@@
这两者@@
pessimistic
mixture
menghasilkan
糟
evaluation
foolish
kap@@
2010年的@@
连通@@
可支配@@
deficiencies
talked
聪明的@@
经济上的@@
合乎@@
真正的问题@@
的现实
光明@@
混淆@@
gridlock
瓦解
republic
educate
非政府@@
lifel@@
直升机撒@@
sparked
mayor
托尼
retired
junc@@
奠定@@
automobile
荣誉@@
evi@@
manipulate
何处
gamble
specified
transit
宪法法院@@
adversaries
微乎其微
payroll
importing
ballistic
颂@@
清洁能源@@
是没有@@
fall@@
fosil
对策@@
和实施@@
1973年@@
训@@
ына
dary
目前所@@
亿人
教堂@@
并不比@@
巴勒斯坦人的@@
宏观审慎@@
笃@@
至少从@@
Sum@@
表演@@
fiable
极端主义的@@
fierce
Christ@@
并被@@
burned
іп
feat@@
宏观经济政策@@
habit
老年人@@
的错误@@
Fore@@
exacerbating
Hon@@
益处
imposes
apparatus
要实现@@
2012年的@@
cad@@
历史性的@@
所有这一切@@
ығ@@
这样才能@@
迷失@@
CD
embry@@
Econom@@
misunder@@
的不确定性@@
divorce
infrastruktur
Muhammad
念
美国政治@@
浅
PiS
ign
当成@@
BE@@
engineered
ful@@
在如此@@
intoler@@
竞选
intends
行长
Michel
maker
而事实上
新常态
coffee
render
Nam@@
反犹@@
为了实现@@
divergence
蜂@@
successors
本可以@@
屈服于@@
Edward
很高@@
什么时候@@
农民
在2016年@@
物理学家@@
关键在于@@
ital
Americas
narrowly
ka@@
产能
Management
支持这一@@
建设性的@@
Boko
anch@@
Ps
尽管这些@@
危害
examination
readers
Piketty
那场@@
范例
hitting
不会再@@
第一步@@
感的@@
形成了鲜明@@
lag@@
haw@@
heroic
多大程度上@@
bed@@
Khrushchev
Information
诉诸@@
уы
这种
佳
Hom@@
wisely
drain
hugely
explaining
累进@@
瓦哈比@@
ция@@
赛
但日本@@
Which
maximizing
authorized
那一@@
DS@@
jeopardize
维系@@
respec@@
就业的@@
Moz@@
use@@
buat
ola
靖国神@@
Rumsfeld
增量@@
颁@@
AIG
无核@@
就
可疑@@
collapses
体系中@@
zi
逃脱@@
mantra
会面@@
endow@@
庇@@
的法国@@
exploration
艺术
нда
的争论@@
外围国@@
tos
最紧迫@@
unbalanced
破灭
阈@@
丧失
Oper@@
mist@@
extremes
literature
Kyi
寻求庇护@@
改革派@@
81
克什米尔@@
欧洲理事会@@
他会@@
魂@@
seri@@
纳税人的@@
铸@@
talents
天安门@@
中得到@@
德拉吉@@
更少的@@
有用的@@
之势@@
overestim@@
Dubai
trivial
powered
择@@
的事件@@
brave
资产和@@
的胜利
修正
它与@@
Uber@@
凸显@@
纽约时报
莱因哈@@
lier
mild
恢复了@@
disappointed
short-lived
捐款@@
fundamentalists
adanya
stances
事实是
shooting
紧
ring@@
Standard
突发@@
dismal
还远远不够
擅长@@
为数@@
拥有了@@
挥@@
近年来
miskin
сал@@
krisis
tiers
科学家
决策者的@@
更进一步
缅甸
iro
eradicate
tibility
fes@@
retains
消费和@@
使用了@@
而如今@@
听众@@
虑
Fri@@
留下了@@
Ki-moon
Eff@@
科夫@@
retaliation
depreciate
危机中
relatives
constrain
对银行@@
Vs
审计@@
大会
作出了@@
onom@@
euro-@@
在我们的@@
冷漠@@
这给@@
从本质上@@
肉
这是一项@@
坡@@
extraction
许诺@@
在某种@@
视角@@
ц@@
合格@@
和在@@
肯尼@@
小儿麻痹症@@
德国政府@@
disadvantage
刃@@
力图@@
flourish
仍处于@@
apartheid
强行@@
老龄化
认为这@@
ified
和平进程
exploiting
生效@@
无法再@@
汇率的@@
国企@@
比现在@@
欧洲央行和@@
人人都@@
但现实@@
peg
imprisonment
生活在一个@@
代理人@@
deprived
1984
backward
datab@@
愈加@@
李克强@@
特朗普和@@
诉求@@
和他们的@@
日子
pronounced
尴尬@@
政权更@@
有趣@@
ressing
apor@@
拨款@@
效力
向其@@
将会在@@
以及美国@@
声誉
掏@@
每年的@@
fundamentalist
带头@@
抵消
其中一@@
我们认为@@
一切
的需要
Anwar
同步@@
imit@@
可以肯定的是
membantu
participated
ascent
金融交易@@
仅占@@
列宁@@
succum@@
married
对国际@@
美国经济的@@
predominantly
cool
autumn
由政府@@
临近
贯彻@@
就得@@
几千@@
的标准@@
笔者@@
ID@@
jihad
并向@@
sovereigns
financiers
媒体和@@
节节@@
在2000年@@
助推@@
伙伴国@@
kelu@@
pan-European
Green@@
鼓励
都拥有@@
migh@@
眼中@@
Warsaw
USSR
了新的@@
incompatible
讨
凝聚力
brid@@
Income
出人@@
让政府@@
restrictive
陆军@@
正在快速@@
这并不意味着@@
articul@@
十一@@
tful
1948
值得注意@@
intact
shu@@
恐怖袭击
J.
traits
狱
cy-@@
对新@@
衍@@
200,000
trauma
modern@@
输入@@
tedness
为零
abound
tape
和南@@
那么我们@@
主要来自@@
separatist
Tro@@
cr@@
竞争对手
的决策@@
tor-@@
Ehud
倦@@
physi@@
repudi@@
的支持者
和管理@@
富裕的@@
dign@@
确实如此
reasser@@
lagging
在前@@
的研究
许多人都@@
选择是@@
Rodri@@
Karzai
one-quarter
Based
feat
responds
联
Suu
horrific
那些
降
灵活
听取@@
笨@@
twin
入侵伊拉克@@
对自己@@
印度教@@
glance
fiscal-@@
印度洋@@
civilized
perverse
替罪@@
fe
yak@@
foot
entang@@
这两个国家@@
男子@@
美国公司@@
burn
双方的@@
neur@@
nervous
fish@@
still-@@
房子
顶峰
奏@@
可用于@@
patern@@
中国必须@@
akers
再融资@@
arist
而且也@@
2.4
特别提款@@
反美@@
primacy
Argentine
京都议定书@@
headline
mutu@@
军事实力@@
爆炸
对所有@@
轻微@@
alleviate
Doc@@
执行的@@
赌注@@
坚持
Tibetan
disrupted
我相信@@
财政政策的@@
imprisoned
Fra@@
话说
的状态
收拾@@
另有@@
20世纪90年代
dollar-@@
totalitarian
Morales
standoff
embarked
的好@@
discretionary
artificially
Produc@@
诞@@
不仅要@@
说明
jihadists
还有一些@@
sin
受到的@@
出乎@@
ssment
eligible
aping
liest
年轻人的@@
defines
sinc@@
chur@@
odd
解决了@@
店
老龄@@
rejects
steam
挫折
awi
Oxford
monopoli@@
utility
一小部分@@
从某种@@
Bol@@
高中@@
trades
secrecy
来确保@@
博科@@
virtues
contradiction
Schengen
dar
Fear
消费税@@
awarded
GM
weakens
自由贸易
冗@@
了一套@@
1940
苛@@
overcapacity
Things
过度
危机后@@
在此期间@@
underscores
偏远@@
千年发展目标@@
成年人@@
belt
伊斯兰革命@@
或在@@
权衡
修补@@
teach@@
dr@@
被要求@@
Wol@@
用以@@
接近
演讲中@@
morning
enjoying
stric@@
并不需要@@
Wiki@@
正在日益@@
fantasy
-wide
better-@@
Antar@@
条件下
才
machinery
Civi@@
crowds
扶贫@@
fearful
的成本
启蒙@@
homeland
反周期@@
Guinea
以及与@@
经济中@@
会为@@
有缺陷@@
healthcare
pening
相去甚远
死去
哈里@@
gesture
不安全@@
pet
对准@@
Colombian
通胀目标
asylum-seekers
coin
Uruguay
reconsider
披@@
onian
权势@@
2015年
dividend
报纸
depressing
geopolitics
lac@@
religions
来临@@
世界上的@@
型的@@
health-@@
的进步@@
viral
Istanbul
有大量@@
股东
过程中的@@
古老的@@
conflicting
这些改革@@
强权@@
classi@@
orph@@
photo@@
individu@@
全
占GDP@@
投资组合@@
国土@@
合法的@@
两场@@
adly
cyberspace
strategi@@
孙@@
rance
在向@@
Carter
尘
conqu@@
特别是那些@@
sident
deri@@
最终导致@@
购买力平价@@
为导向@@
pages
condi@@
stretch
Ti@@
否
nex@@
去的@@
jurisdictions
vacc@@
澄清@@
Star
做好了@@
analytical
刚果@@
矛头@@
国外的@@
的穆斯林@@
Chi@@
aksi
cely
sche
中华@@
余地
人们在@@
杆@@
mation
mandates
staying
character@@
经济复苏
反馈@@
forged
与会@@
农村地区@@
事物@@
掩盖了@@
iles
protects
为了应对@@
最主要的@@
悬崖
中国的经济@@
各自为@@
entary
murdered
打折@@
缝@@
үшін
advancement
既不@@
clock
gol@@
colleague
得上@@
modernizing
не@@
门槛@@
concer@@
military-@@
resignation
arch
多元化的@@
SEOUL
欧洲委员会@@
demand-@@
剥削@@
性别平等@@
Price
的一步
当前
lin
必需的@@
pulling
poc@@
psychiat@@
独自@@
10.@@
聚变@@
谁来@@
什叶@@
Phili@@
grassroots
封锁@@
varied
抵挡@@
我们这个@@
礁@@
invention
黎巴嫩和@@
躁@@
resolu@@
执政联盟@@
interdependent
与政治@@
President-elect
人口增长@@
Maduro
主导
flouri@@
高峰@@
ross
第一次世界大战@@
几内@@
мүмк@@
备忘@@
theirs
siders
sacrifices
Gar@@
英镑
但她@@
蛋白@@
пай@@
Senkaku
slows
rently
sorts
逊尼@@
escap@@
ility
kese@@
三个月@@
expedi@@
宝贵的@@
药方@@
远超@@
airports
slack
濒@@
add@@
吵@@
poten@@
朗
unconditional
persons
biaya
参与的@@
历史上的@@
违法@@
weigh
ich@@
曾说
siege
原则的@@
hem
卫队@@
可以带来@@
也只是@@
已经达到了@@
refinancing
cit
{
С@@
大幅削减@@
却无法@@
士兵
只能通过@@
政策利率@@
学家
radi@@
humane
低技能@@
transformative
Relations
Sem@@
Prote@@
commemor@@
诚
дан
sejumlah
的地理@@
mit
curtail
创始@@
可持续发展
seas@@
维
Sim@@
69
fis@@
把
正在向@@
aces
77
74
名言
OSCE
ICTY
幸
多元化
完全没有@@
就业率@@
开始的@@
很多国家@@
日元
草
团队
熟练@@
废墟@@
的人们
distributional
mers
Powell
军力@@
拢@@
网站
laun@@
年初@@
为由@@
fru@@
无动于衷
罗姆人@@
为2
最小化
兴起@@
Protec@@
对冲基金@@
disregard
和治疗@@
atically
耐心@@
craft
000名@@
提供一个@@
其与@@
审核@@
stall
归功于@@
divisive
存款保险@@
亚当
hegemonic
proactive
installed
сая@@
voy
圣地@@
已经不再@@
而由于@@
riding
parano@@
限度@@
层出不@@
心目@@
nouri@@
实时@@
2050年@@
到2050年@@
家庭和@@
都有可能@@
servants
价格和@@
rift
景气@@
重新思考@@
boy
properties
Stephen
国际社会
weighed
购买
苏维埃@@
procedure
肿瘤@@
着一个@@
brutality
terly
penye@@
乃@@
pandemic
kemajuan
expropri@@
几个世纪@@
注定要@@
时间内@@
的叙利亚@@
respondents
地球
beli@@
阁@@
signatories
responsibly
score
微不足道
furi@@
词汇@@
terutama
section
观的@@
在国会@@
mped
和私人@@
男孩@@
该委员会@@
路线图
的成就@@
meets
会上
man-@@
Fried@@
anymore
applic@@
对人类@@
打
的前景
禁令
暴露出@@
开辟@@
灾难性的
说出@@
German@@
cents
IN@@
资料@@
它们都@@
的投票@@
同僚@@
牵涉到@@
仍然存在
糊@@
中断@@
伊朗在@@
拙@@
bic@@
Net@@
军政府@@
anj@@
develops
国防部@@
asset-@@
万名@@
耶路撒冷
通货@@
这是否@@
重要的是
季度的@@
Years
和其他人@@
干旱
lef@@
样的@@
kali
印刷@@
打破
-0
describing
tahu@@
independently
替
duk@@
库存@@
这点@@
hampir
arre@@
这种情况
议定@@
jointly
貌似@@
jangka
Terrorism
跨大西洋贸易和投资@@
但只要@@
76
TF@@
50-@@
旋
militia
ax@@
worlds
投资者和@@
ince
squeeze
occupying
tune
就变得@@
spillover
price-@@
对这个@@
had@@
在后@@
pieces
Mauri@@
persistence
严峻
Medical
pack@@
merit@@
ply
patriotic
人造@@
商品和@@
useless
兄@@
tech@@
proponents
诉讼
BP
上半@@
persuaded
50年代@@
的对手@@
7,@@
人群
忠于@@
低下
molec@@
受伤
无知@@
峰值@@
Ur@@
casting
atists
在希腊@@
бі@@
dismis@@
胃@@
是不会@@
gig@@
的女@@
waktu
这些公司@@
terakhir
designing
全球市场@@
结构和@@
professors
specialists
在193@@
威尔逊@@
继续保持@@
lum@@
衷
atif
scapego@@
将因此@@
而现在@@
的经济衰退@@
socioeconomic
因为我们@@
如果它们@@
已经有了@@
建立了一个@@
制造业
experimental
得的@@
恐惧和@@
Evi@@
寄希望于@@
disability
的话说
observation
Bor@@
罕见
measurable
bets
迁
resign
one-fifth
kenaikan
sacred
asserted
拉斯
克莱@@
Armed
中也@@
inertia
holiday
geographical
北欧国家@@
displacement
关系到@@
Tiananmen
将美国@@
的成果
deeds
О@@
以来最@@
2007-2008
perpe@@
decou@@
yielded
cow
拉克@@
骤@@
主意
鄙@@
3,000@@
宜
直到最近
preventable
块
亚历山@@
turbulence
不同的
unskilled
recon@@
加入欧盟的@@
cell@@
disappointment
垮台@@
标签@@
u0027s
够
生长@@
jeopardizing
portray
公里
writers
请求@@
多数人@@
olution
他可以@@
2.1
将它们@@
向中国@@
3.6
5个@@
dissidents
戴维
未来十年@@
prosecutor
Dunia
另一些@@
在金融@@
喂@@
aggrav@@
给他@@
允@@
尔斯@@
与他@@
selective
hell
峰
Ay@@
strengthens
trium@@
Golden
勒庞
方面也@@
alnya
publik
分之一
自称@@
描述为@@
comple@@
privately
紧随@@
per-@@
non-governmental
asser
两年
明确表示@@
的高级@@
布雷顿森林体系@@
risking
post-World
Conservatives
一个重要@@
炫@@
显露@@
87
volumes
pens@@
领取@@
menciptakan
也成为@@
通向@@
prevalence
但目前@@
retained
个世纪@@
convicted
Bel@@
depic@@
的欧洲
收入水平@@
高技能@@
受益者
善于@@
self-defense
担
益的
泡@@
世界贸易组织@@
在二十世纪@@
令人担忧
国籍@@
电动@@
GDP的2
含量@@
滋生@@
透明的@@
的因素
dict@@
匮乏@@
shopping
transmitted
居高不下
confron@@
banker
浪潮
uli@@
fertili@@
rid
Wolfowitz
试图在@@
裨益
campa@@
NTC
密切
给予了@@
我国@@
stipul@@
persistently
伊斯兰教
是他@@
刊
repa@@
斗争的@@
毁灭
周期
局限性
peer
Inclu@@
defl@@
销售
asymmetric
偏执@@
tropical
溢价
compromising
hr@@
开了@@
家庭收入@@
convert
阿拉@@
占GDP之比@@
Khodorkovsky
140
度过@@
credentials
不但是@@
过高@@
though@@
认为自己@@
elector@@
缺失
税务@@
之年
这才是@@
仍不@@
初选@@
traveled
Governing
mir@@
推动力
斩@@
血管@@
make@@
美好的@@
的最好@@
自身
Fox
完善的@@
xes
转向了@@
drones
结束的@@
fruits
seldom
administered
德克萨斯@@
labor-@@
的成功
multip@@
身于@@
斯堪的纳维亚@@
Sud@@
匹配
案的@@
atian
clam@@
改变其@@
争论的@@
这些数字@@
暴动@@
也能够@@
tahan@@
购买力@@
景
关心
lags
never@@
VE@@
预见到@@
直接投资@@
访
紧张局势
CBO
nostalgia
已故@@
同盟
做好准备@@
scrip@@
contempl@@
受人@@
的共和党@@
多德-弗兰克@@
vy
8月
amendment
一番
倒塌@@
construc@@
perc@@
有三个@@
Mir@@
就不是@@
患者
电话
卡梅@@
克制@@
迈出了@@
默认@@
沙文@@
学派@@
tripled
竞争者@@
mismanagement
luar
始
强制性@@
lower-income
blan@@
活动家@@
Latvia
加重@@
compel
ais@@
阿萨德政权@@
flee
诺贝尔@@
gho@@
新药@@
undercut
之手
toppled
dless
地点@@
1970年@@
Armen@@
avo@@
外交关系@@
对任何@@
控制和@@
廉价的@@
浩@@
场所
nia
mping
安格@@
停滞不@@
个月的@@
Western-@@
修改
斯蒂格@@
自然灾害@@
1950年@@
entially
floating
赞扬@@
dis
Peter@@
Eth@@
理想的@@
预计
institution@@
flow@@
寻常的@@
dividing
四十年@@
醉@@
有超过@@
土著@@
1975
德意志@@
网络的@@
所认为@@
学者
意义上
self-fulfilling
与政府@@
rape
一道
withdrawn
亿美元用于@@
distingu@@
针锋@@
机器
Dengan
Northeast
中国官员@@
tightened
hetero@@
塞
阿拉维@@
几乎肯定会@@
但其他@@
就能够@@
煤炭
本能@@
onable
慷慨的@@
pretend
business-@@
operated
新近@@
marketplace
倒
分类@@
希腊人@@
agon
resum@@
工程的@@
并不足以@@
ң
理由是@@
º
cas@@
stag@@
殴@@
也因为@@
消失了
疼@@
足轻@@
Dream
伊朗的核@@
迁移@@
西班牙的@@
塑@@
便宜
list@@
endure
理论上
不相信@@
名叫@@
Atomic
中左翼@@
对国内@@
bent
euro-zone
整套@@
Pot@@
一种新的@@
经验表明
Yushchenko
gian
不足的@@
mathematics
shut@@
而来
mercan@@
opaque
同性@@
在这样的环境下
挂钩@@
tank
视频@@
疾病和@@
泛欧洲@@
整个欧洲@@
reali@@
atomic
sekitar
是怎样@@
欧洲政治@@
Academy
lawyer
clubs
配置
希拉@@
夭@@
beat@@
curve
报告的@@
multipolar
2013年的@@
和平协议@@
Taiwanese
都是在@@
必不可少
所产生@@
和平和@@
disclosure
中右翼@@
Work
连
bil
大面积@@
的最初@@
Congo
的挑战@@
美国财政部@@
Progress
Georgian
三中全@@
listening
多项@@
occasions
signaling
巴勒斯坦的@@
宏伟@@
asser@@
公里@@
完整的@@
demograph@@
olutions
总统竞选@@
耶夫@@
没有那么@@
协同@@
masalah
干涉
必要条件
mirror
但仍有@@
fraught
所得税
重创
议院
孩
等问题
胚胎@@
debacle
道路上@@
fastest
gel
松散@@
peers
rement
抽象@@
peril
pneumonia
Dmit@@
clause
主权国家@@
spur@@
易事
该怎么@@
追加@@
限度
off-@@
uskan
tortured
widen
Orange
拜
只有不到@@
拿到@@
省份@@
微弱@@
领导者
MILAN
Slovakia
q
标志性@@
预言
lor@@
两者的@@
journalism
决定是否@@
puzzle
昔日@@
身边@@
意大利人@@
定律@@
在印度
cyber-@@
以失败告终
第一种@@
oner
Beg@@
支持了@@
proce@@
如若@@
stream@@
远非@@
扮演了@@
rend@@
滴@@
indicating
邀@@
armies
顾客@@
versa
exciting
有核@@
建成@@
peti@@
多个国家@@
匈牙利
护理@@
雾@@
标签
journ@@
clinics
这一方案@@
fertile
interpret
身上的@@
timicrobial
马德里@@
每人@@
粒子@@
范
dou@@
time-@@
独立性@@
taste
造就@@
币
Differen@@
原料@@
matches
需要采取@@
Ed@@
慕@@
轨
obscure
增长模式
owes
的策略@@
produksi
磨@@
国际原子能机构@@
manusia
自私@@
recovering
赫鲁晓夫@@
prohibition
heritage
多元文化@@
堕@@
HF@@
ji
bagian
prosecutors
泄漏@@
利率和@@
simpler
Sin@@
confir@@
也从@@
合理性
you@@
racist
的更@@
简化@@
eous
公共支出@@
1月
共同利益@@
tenth
occup@@
堪
讽@@
窘@@
以免@@
旺@@
牵涉@@
暗中@@
2007年的@@
Know@@
logies
agon@@
Way
也意味着@@
威胁着@@
activ@@
因果@@
transc@@
30-@@
青少年@@
short-run
应该得到@@
resembles
减小@@
欧盟成员资格@@
aversion
去世@@
幅
已在@@
尤其重要
elabor@@
delays
champions
myself
Interest
军事政变@@
生活水平的@@
analyze
垄断
应该采取@@
建筑业@@
马杜罗@@
每桶@@
身份的@@
PK@@
俄国人@@
布兰@@
泻@@
Lou@@
rolling
道的@@
contemplate
生机@@
memp@@
招致@@
improves
stricter
社会民主党@@
Peres
做的
不断扩大的@@
peninsula
的增加
misu@@
viability
rehab@@
签署的@@
devised
职业生涯@@
艰难的@@
all-time
随意@@
高额@@
Z
cism
没有在@@
宰@@
mart
随着中国@@
认清@@
fla@@
retrenchment
徘徊@@
әр@@
plain
charisma
supreme
1947
жет@@
濒临@@
束缚
kick@@
演化@@
斥
worthwhile
结束后@@
将出现@@
stering
Kofi
一手@@
dissem@@
应
协定的@@
UM@@
阻碍
工人和@@
surged
的则是@@
Chil@@
helium
磁@@
普及
国内生产总值的@@
surance
radicalization
赌注
length
Snowden
野生@@
在2004年@@
决裂
财长@@
无一例外@@
runk
由来@@
上升了@@
tiv@@
aku@@
solvency
墨西哥和@@
深刻
深入
gment
券@@
所在的@@
毁掉@@
itably
рақ
小心翼@@
如果不能@@
把它们@@
imposition
房
eradic@@
kus
诈@@
与中国的@@
advanced-country
五
possesses
伊斯兰教徒@@
比重
icked
explore
祈@@
而是在@@
remedies
分配给@@
而出
而这个@@
区域性@@
财产
cum@@
重商@@
人文@@
历史上
查尔斯
不当@@
二世@@
af
Lib@@
微不足@@
worsened
logistics
副作用@@
眠@@
流通@@
让自己@@
三分之二
Make
anti-Semitism
访者@@
emig@@
正义与发展@@
一切都@@
正在迅速@@
萨利@@
据估计@@
眼中的@@
划定@@
验@@
formerly
tile
应该从@@
压迫
威胁要@@
剑@@
的价格
勃勃@@
小于@@
ject
Glass-Steagall
辉@@
起初@@
lobby
oy@@
斯克@@
的两个@@
boosts
更令人@@
listrik
巴解@@
的办法
nan@@
Ketika
redund@@
forgiveness
总统任期@@
magic
雅典@@
ld
核不扩散条约
无非是@@
看见@@
回来
阴影
omics
打着@@
的政治家@@
远远高于@@
划分@@
世界秩序@@
就任@@
已经让@@
шыл@@
low-wage
TT@@
也应当@@
resisting
这一概念@@
Barroso
kidn@@
suggestion
场所@@
目标和@@
degra@@
bantuan
mobilizing
分裂的@@
从长期@@
dropping
造就了@@
dysfunction
docum@@
构建一个@@
like@@
是被@@
High-@@
纲@@
X
特别提款权@@
也门
wartime
佛教@@
资金和@@
不扩散@@
分水@@
manipulated
vivi@@
这有助于@@
厌恶
precarious
Later
措施来@@
inefficiency
accordance
营销@@
legis@@
另外一种@@
compla@@
效率低下
萨
bio-@@
测验@@
远远低于@@
Yasukuni
Be
结合
bab
governors
nings
Seoul
feeding
Aqu@@
冰岛@@
僵化@@
大萧条
stal@@
不作为@@
造成严重@@
将需要@@
fan
休
升温@@
下一任@@
0.3
eased
挫败@@
接替@@
激起了@@
boycot@@
publici@@
ground@@
gencies
brea@@
挂@@
指
keamanan
panjang
较大的@@
Long-@@
replied
滩
裁定@@
无序@@
Darwin
格鲁吉亚
亟@@
penggunaan
落后的@@
Ann@@
辅@@
发布的@@
独裁政权@@
把美国@@
patriotism
箭@@
notwithstanding
Austrian
助益
Fren@@
cham@@
财政刺激
footing
的时间里
现在正在@@
aken
级的@@
monarchy
迪拜@@
汤@@
犯了@@
援助和@@
environment@@
х@@
秋天@@
inform
应该对@@
失调@@
商店@@
有损@@
魁@@
毫无意义
early-@@
land-@@
迫害
stret@@
川@@
东道@@
毋庸置@@
Financing
detri@@
才能实现
impacts
最重要@@
blocks
拿破仑@@
mathemati@@
neighborhoods
subtle
锁@@
fortunes
Tor@@
在纽约@@
eable
acqu@@
反对派
超国家@@
一周@@
working-class
string
将要@@
的做法
信息技术@@
pel
服务业
对抗
praise
武装分子@@
通道
禁止
accor@@
unregulated
但无论@@
的故事@@
美国国家@@
Capitalism
的种族@@
把他@@
过多的@@
Innovation
京@@
scram@@
Ten
Sam@@
推销@@
人权的@@
已不再是@@
kur@@
结盟
而其他@@
骄傲@@
最高领袖@@
Glob@@
巨大的
怪
准确地@@
cit@@
国际组织@@
会面
ile@@
色彩@@
predictability
出色@@
compensated
rations
Coalition
更快地@@
安倍经济学
rele@@
luas
outdated
wind@@
顶峰@@
挣@@
提供给@@
沟@@
预警@@
framed
了一位@@
代际@@
acceleration
apologi@@
而且是@@
COP@@
地缘@@
没有多少@@
acknowledging
post-Soviet
短期
stabilized
sic
史无前例@@
titude
busi
opping
为他@@
locally
kle
handling
sizeable
地向@@
手里@@
否决了@@
澜@@
消费支出@@
compassion
老
Journal
越来越大的@@
菌
公务员@@
世界各国的@@
自
behaviors
深思熟@@
对应@@
开明@@
固定汇率@@
contend
感和@@
不可思@@
汹@@
为了确保@@
欧元区危机@@
人类
dy@@
bloo@@
Medicaid
prevalent
fing@@
这是一场@@
Thre@@
必须由@@
continuation
bizarre
weapon@@
增长放缓@@
的一场@@
theor@@
阿塞拜疆@@
knoc@@
所导致@@
瘾@@
lean
药品
放弃
portrayed
other@@
tracking
insi@@
DP@@
转折@@
wast@@
感到惊@@
以适应@@
mengatasi
处境@@
anggo@@
sual
insec@@
和未来@@
附加值@@
redistribu@@
automobiles
真空
brains
FS@@
格雷@@
达尔富尔@@
大不相同
多了
Drawing
survi@@
horrors
buk@@
灵
emul@@
将取决于@@
先前@@
和土耳其@@
加紧@@
SDRs
当的@@
LGB@@
不管你@@
武装力量@@
scant
更不要说@@
lically
必须为@@
难民营@@
意料
明智地@@
经常项目盈余@@
hosts
developers
accru@@
vey
Nat@@
公众
可怜@@
常任理事国@@
экономик@@
地区性@@
Canc@@
用户
安装@@
rescued
这一进程@@
peril@@
compreh@@
apar@@
敬
喻
不仅在@@
几百年@@
自然资源
auto
puzz@@
Santos
Nordic
OMT@@
sidelines
损失的@@
Nobody
理智@@
ford
invent
obsessed
commentary
vag@@
但实际@@
长足@@
Child
hypocrisy
深远
junta
Nav@@
才开始@@
catalyst
thre@@
2000s
ой@@
好的
license
成效@@
发布了@@
暴行
perspectives
几年前@@
imperialism
疟疾
少数群体@@
瞬@@
AVI@@
在长期@@
在中国的@@
响应
democrati@@
忧心忡@@
2月
泉@@
监控
三十@@
谁能@@
躲@@
道德上@@
尽管它@@
产油@@
-3
持续了@@
它们也@@
biom@@
出去
hardline
丑闻
fatigue
成分
对称@@
其中许多@@
马里奥
tetapi
Prince
让这些@@
horri@@
侨民@@
的基因@@
日益增长的@@
1914年@@
鱼类@@
站不住脚
应急@@
五十@@
cers
趣
事后@@
以致于@@
公共服务@@
chaotic
arising
将获得@@
西班牙和意大利@@
yans
的世界中
卸@@
们在@@
尽管存在@@
vowed
dapi
复杂性@@
Winston
86
load
商业周期@@
Fam@@
diplomat
临
hoc
可观的@@
公信@@
numer@@
所取代
大谈@@
曾是@@
submit
illustrates
伊斯兰教的@@
服从@@
YouTu@@
抉择
gging
yel@@
的责任@@
仍旧@@
的利率@@
过早
American-@@
process@@
愉快@@
东海@@
更难@@
Vill@@
服装@@
可持续发展的@@
的信誉
溃@@
忧
upheaval
uro@@
湿@@
福克斯@@
有何@@
summits
公
cleaner
将它@@
预期寿命@@
轨道
ethnicity
成员资格@@
Hamilton
不同意@@
inan
联合政府@@
配
力求@@
fet@@
低通胀@@
影子银行@@
prohibi@@
day@@
negeri
将最终@@
阿拉伯之春
diversify
军人@@
压缩@@
人民币的@@
真的
teacher
返
1美元@@
患
他必须@@
幸福
consistency
ocracy
英美@@
20年前@@
2011年的@@
橙色@@
提振
尼日@@
Getting
magazine
红利
diagnosed
真理@@
的一切
imaginable
bailed
要求在@@
每当@@
2001年9月11日@@
裕
不必要的@@
35年@@
纪律
twentieth-century
Deputy
入主@@
tactic
遗忘@@
Fischer
践踏@@
诊所@@
完整
kins
instr@@
贷款和@@
国家间@@
又一@@
Hai@@
心脏病@@
FTA@@
rankings
慰@@
删@@
噩@@
occupy
同样也@@
受制于@@
电脑
只能在@@
红色@@
把自己的@@
Nature
deploying
transform@@
监禁@@
sty@@
者提供@@
eff@@
monarch@@
退休年龄@@
investigations
arts
听上去@@
而将@@
ridic@@
paths
priced
itors
回收@@
大门
悄悄@@
科威特@@
能实现@@
akses
归还@@
deci@@
战场
原理@@
medioc@@
Jam@@
尺@@
angkan
大获全@@
swift
行事@@
kebutuhan
可以利用@@
sors
intr@@
沟通
Populi@@
生理@@
孱@@
第三种@@
德的@@
akibat@@
тү@@
民事@@
麻省理工@@
qualify
对其进行@@
Janet
asuries
表决@@
无休@@
论者@@
wild@@
番
Wilders
贸易和投资@@
构成
大手@@
反移民@@
股份
把注意力@@
基础设施的@@
transformational
发表的@@
advi@@
Arab-Israeli
Conver@@
都面临着@@
TO
咒
900
会不会@@
抑或@@
minimizing
inspiring
巴黎气候@@
swings
Raj@@
只剩下@@
dened
subsidize
的学生@@
bacteria
musc@@
characteristic
sif
对外国@@
公共品@@
collar
激活@@
cushion
awak@@
反恐战争
法则
ito
神话@@
Rev@@
visa
strong@@
创纪录@@
总体而言@@
最快@@
地与@@
horiz@@
生物
过去20年@@
oritas
Death
忘记
共有@@
其它国家@@
5亿@@
Tamil
的工具
efully
one-party
employer
voic@@
体制的@@
真心@@
courageous
wre@@
bal
M-@@
Early
东正@@
有更多@@
Commer@@
stretched
拖入@@
Health@@
队伍@@
展望
deepened
生活和@@
又能@@
所有国家都@@
无能
旷日@@
sab@@
还远远@@
适应
suic@@
wat@@
tip
Data
wood
作为一个整体@@
өз@@
unequi@@
grain
Guatem@@
cheaply
什么是@@
religi@@
variable
奋
大军@@
imperatives
默多@@
补助
电厂@@
较小的@@
dismantling
欧洲货币联盟@@
Emmanuel
丝毫不@@
即使没有@@
也难以@@
简称@@
devastation
记住
两周@@
经常项目赤字
rine
人身@@
organs
aires
Hassan
怒
两年前@@
公共和私人@@
任何人都@@
buc@@
摩擦@@
FOMC
相似之处
危地@@
peace@@
converge
重新考虑@@
屈服
斥@@
地区内@@
tolerant
tist
和德国@@
独立于@@
Russian-@@
捐献@@
上一@@
imper@@
卢比@@
认同
无限期@@
writ@@
worldview
舌@@
伊拉克和阿富汗@@
massively
Da@@
软
ext@@
成百上千@@
迫在眉睫@@
dressing
了一半
不住@@
低下@@
abrupt
世界银行和@@
Sw@@
极权主义@@
马利基@@
防
流行
冷战的@@
isi@@
Publi@@
喇@@
edi@@
user
格拉斯@@
上演
阁
eters
中国需要@@
只能是@@
nai@@
他们认为
处置@@
Keynesians
起义
受灾@@
hybrid
ck@@
撒哈拉@@
Magn@@
bottom@@
射
FIFA
乐观的@@
卡尔扎伊@@
ano
的年轻人@@
账
灾难性后果
Bulgaria
illicit
drastic
MDG@@
exposing
brilliant
采取任何@@
谈话@@
biased
好转
Rap@@
劳动密集型@@
生产力
Emp@@
保加利亚@@
在近@@
可用@@
prolifer@@
列强@@
incoming
Recovery
往常@@
推荐@@
也更加@@
hall@@
姬@@
常常是@@
suitable
mistak@@
发展中世界@@
华盛顿特区
fak@@
Transparency
社
那些被@@
Luxembourg
Studies
则需要@@
supple@@
配合@@
旬@@
geo-@@
_
influences
inflated
73
entally
Land
SB@@
除此之外@@
维利@@
国家利益
贸易顺差@@
tung
keber@@
cosmo@@
tty
新生@@
言论自由
constituency
这种状况@@
能够通过@@
近年@@
自信
mobilization
的还有@@
yourself
aine
蛋白质@@
汽@@
SCA@@
te-@@
低廉@@
magn@@
tourists
BA
stom@@
premiums
电动汽车@@
税和@@
Yor@@
pengungsi
各国央行@@
干细胞@@
板球@@
surve@@
tipping
Alg@@
spi@@
对西方@@
Scandinavian
困
挖掘@@
saya
Princ@@
devastated
储量
180
Drug
在法国
坝
Refugees
leap
谜@@
稳固
坐在@@
devo@@
所说的那样
太少
发展出@@
urut
regulator
forec@@
patron@@
这一事实
prosper
琴@@
bombings
contested
catch-up
deser@@
之间的联系
真理
gal@@
释放
Five-Year
承包@@
红利@@
kri@@
工会的@@
在乌克兰@@
虎
政府都@@
欧盟内部@@
惑
lists
supervi@@
consumption-@@
颖@@
umb@@
投资者们@@
royal
convened
合情@@
思想家@@
可以作为@@
倾斜
抗药@@
clarify
akhir
atmo@@
免不了@@
埃克森@@
为核心@@
undrum
ия
corrup@@
Basi@@
但印度@@
燃
降到了@@
capitalized
辜@@
腐蚀@@
需要对@@
村
39@@
还有人@@
录
Think
和银行@@
tast@@
seeming
coercion
Viol@@
enlar@@
determines
石油生产@@
挥之不@@
drac@@
spill
同行@@
宝座@@
indices
蔑@@
息息相关
dap@@
conducive
del@@
而从@@
Pay@@
似乎并不@@
fi
明天@@
strife
避免的
Py@@
稳定与@@
绿色
amaz@@
缺乏
雷
魅@@
是显而易见的
priv@@
pares
更重要
辖@@
shelter
隔离
采用了@@
斯密@@
的价值
仍能@@
战的@@
purchased
罗马
通过的@@
或至少@@
Dra@@
的真实@@
赋予了@@
Fal@@
雀@@
魅力
recruit
战略性@@
为了防止@@
Sto@@
靠近@@
spiritual
不清@@
ecture
只能让@@
的具体@@
iller
polarized
hero@@
menting
事实上的@@
克斯坦@@
摆在@@
hasil
持续的
的文化@@
市值@@
delu@@
的领域
upgrade
的生产@@
squee@@
blat@@
安慰@@
Serge@@
召集@@
借鉴@@
manfaat
的人士@@
lords
沙特王国@@
患有@@
strip
ember
比亚
4月
sile
颓@@
诉求
严重依赖@@
之一就是@@
哈拉@@
萨尔瓦@@
CT@@
则为@@
ald
枪支@@
Aid
Success
Achieving
将与@@
films
牢牢@@
议会的@@
讯
dé@@
jihadist
diaspora
Currently
ularly
likewise
同理
jelas
正是在@@
tle
eth
并没有什么@@
放射@@
44@@
金融资产@@
disparate
committees
Hollywood
engul@@
临时性@@
这些投资@@
inov@@
council
饿@@
assurances
街头
式的
remo@@
人才
是不可能@@
良性@@
另一项@@
积累了@@
sty
injured
骑@@
集中的@@
mergers
谱
attainment
找到
检查
但至少@@
develop@@
提高利率@@
的创新@@
紧密
克斯
支出削减@@
酒
之上的@@
rewarded
Niger
是否定的
Hal
了那些@@
sid@@
fuel@@
房地产价格@@
在2003年@@
工资的@@
12个月@@
ultra-low
berhasil
随处可见
foresee
芝@@
完全不同的@@
他们想要@@
бұл
但这并不意味着@@
Large
携@@
us-@@
代表团@@
意图
distur@@
abundance
人是@@
FT@@
可以使@@
Shiite
似乎都@@
欧洲必须@@
分离
拉夫
的不同
在下@@
余额@@
它来@@
acquiring
必要性
所有
untenable
diter@@
绝望
斯塔@@
rown
34@@
的外国@@
气候政策@@
的一面
addic@@
diffusion
兴建@@
crafted
大使馆@@
乱象@@
金融危机爆发@@
chooses
开放和@@
必须有@@
诺贝尔和平@@
森林
出来的
bang@@
加入到@@
swasta
腕@@
resurgence
ici@@
经济学的@@
多样性的@@
但不幸的是
侵入@@
轻而易举@@
和生物@@
稽@@
享受到@@
Tam@@
fashi@@
醇@@
spot@@
mentality
疏远@@
confirms
attle
plastics
variations
描述了@@
ully
游客@@
软弱
Nik@@
Jobs
Joint
fee
昂山素@@
迎@@
以保护@@
经合@@
ority
监视@@
原来@@
男性
ge-@@
应该通过@@
阳光@@
discoveries
描述
须知@@
礼
获得成功
中美洲@@
实际利率@@
innovators
ethos
groundwork
thr@@
appli@@
萨拉@@
煽@@
bone
含有@@
seed
manages
endangered
和前@@
ssed
menunjukkan
我想@@
Cheney
多哈@@
cially
高效
hyper-@@
摒@@
obsession
ć
他指出
更糟糕@@
审议@@
这一幕@@
干扰
册
harmony
hardliners
Hiro@@
渎@@
演变@@
权和@@
禁运@@
奖金@@
就会被@@
较高
dest
candidacy
火车@@
色彩
行为和@@
含糊@@
表达
GDP的3
ern@@
Chechnya
favor@@
Pat@@
昭@@
萨克@@
overlook
peculiar
Polit@@
育
yi@@
initi@@
omer@@
中俄@@
犬@@
所说的
appreci@@
姑@@
顶
byp@@
哈里发@@
advent
不确定性的@@
biome@@
说辞@@
stops
哥本哈根
0.2
反对者
kids
endeav@@
假装@@
emen
ideally
一去@@
overwhelmed
revision
金砖国家
约翰逊@@
vigorous
rainfall
节奏@@
从前的@@
know-how
thoughtful
ро@@
pertama
交
拼命@@
inda
体现出@@
urging
ubah
athletes
孕育@@
地产@@
Mao@@
两难@@
的一篇@@
ballo@@
一看@@
recourse
disciplines
supplied
Environment
fers
枪击@@
Coal
经济合作@@
认为美国@@
donations
地进行@@
prerequisite
哈马斯和@@
fiscally
fertilizer
breach
schol@@
coordinating
观察员@@
Migration
若非@@
这还@@
standpoint
pap@@
session
compu@@
entional
erian
Trust
Catholics
kirakan
启发@@
贫
为目标
加之@@
历史和@@
prudence
厉
串@@
ig
capturing
首相安倍晋三@@
Mur@@
捏@@
马萨诸塞@@
sexuality
农作物@@
nesty
将军
Insurance
不应当@@
个人和@@
卢森堡@@
well-functioning
国会预算@@
基地组织的@@
internation@@
写
不该@@
readiness
的理论
结局
analyses
Blo@@
MPs
shaken
Francisco
preclu@@
stature
дің
reporters
legislature
略高于@@
龙
各有@@
中占据@@
Faced
的传@@
coined
defenders
更加重要
Comprehensive
computing
度假@@
monopolies
Aleppo
wealthiest
commander
经营
Century
ridden
critici@@
dams
secession
平均每年@@
网络空间@@
cyc@@
入侵
lob@@
批准了@@
ayan
melawan
galvan@@
Sho@@
adolesc@@
困惑
是否有@@
两倍@@
deteriorated
和控制@@
皇家@@
借钱
chil@@
500亿美元
同样重要的是
虽然在@@
希望看到@@
基础上
outbreaks
hopeful
тыр@@
IND@@
uang
78
惨遭@@
investigate
南中国海@@
用处
卸任@@
纯粹的@@
既得@@
inflam@@
原来的@@
spark
reassure
elev@@
猖@@
外交部@@
ly@@
Election
卖给@@
毛里@@
GCC@@
想象的
stayed
wu@@
lip
大城市@@
在面对@@
清单@@
掘@@
受益者@@
withdrawing
technologically
印钞@@
联合政府
快速增长的@@
会以@@
从中国@@
验
alth
相符
aiming
aba
ambil
尽管其@@
deter@@
同比@@
GB@@
dup@@
在土耳其@@
reminds
naive
阿尔及@@
kit@@
recei@@
撑@@
价值链@@
xation
人心
陋@@
得过@@
对它们@@
Twenty-@@
Dialogue
vill@@
交易所@@
重要的作用
stifl@@
workplace
格莱@@
non-tradable
nuc@@
压制
技术创新@@
Super@@
keter@@
uniqu@@
并试图@@
Agricultural
相形@@
不无道理
学位@@
深化
损
Einstein
aided
的经济政策
谎言
大约有@@
消退
faction
aven@@
避孕@@
passionate
和平共@@
随着美国@@
夹@@
obstruc@@
ace@@
特拉维夫
庸@@
taneous
趋势的@@
破产的@@
pilot
Cina
stors
了整个@@
影片@@
提名人@@
几乎不可能@@
环
那
prisons
规模最大的@@
信任的@@
最近一次@@
Franco-German
维尔
维奇
contingent
差不@@
一无所@@
tailored
缩
加沙
银行联盟@@
1974
提升了@@
奋斗@@
难以为@@
mps
hegem@@
130@@
quota
arely
科技
lexi@@
在任@@
和谈@@
债务-@@
根深蒂固
吉斯@@
他与@@
infl@@
opho@@
计划在@@
新的全球@@
Post
利比亚的@@
经济学家的@@
贸易伙伴
小企业@@
Maliki
landmark
adjusting
对叙利亚@@
秀
Pew
gift
preceding
浸@@
大惊@@
convic@@
网上@@
lec@@
ICC
efs
试想@@
低了@@
不超过@@
充分就业
unanimously
rumah
阅@@
ong-@@
参选@@
textbook
fake
metro@@
智库@@
问及@@
桶
揭示了@@
该政策@@
所发生的@@
结构的@@
奥尔默@@
当局的@@
Schumpeter
assertion
virtuous
相当的@@
cron@@
watershed
demi
Besides
PRI
FML@@
束手无策
consciousness
there@@
凝聚力@@
栖@@
接受过@@
独裁
appropri@@
工业化国家@@
efektif
从某种程度上说
吃惊@@
农产品@@
为了让@@
pestici@@
讨厌@@
不管怎样
强人@@
一日@@
的趋势@@
宣布将@@
抗议活动@@
iPh@@
这似乎@@
关联
68
71
尽可能地@@
而这也是@@
polling
bag@@
根本不可能@@
лық
欧盟宪法@@
社会经济@@
已经导致@@
Minist@@
textbooks
sejak
过去二十年@@
比赛
She@@
的问题是
一块@@
尽的@@
拉姆斯@@
preemp@@
湖@@
利库德@@
不包括@@
克服
indul@@
提取@@
信托@@
些许@@
ison
利差@@
ora
世界大@@
chauv@@
然而在@@
武装冲突@@
常见@@
Tiongkok
沙
为3
sliding
安全部队@@
艰@@
gery
悲哀@@
assembled
Currency
非洲人@@
ray
拉丁美洲
starvation
安全问题@@
orchestr@@
救世@@
Pin@@
雪上加霜
Experts
就足以@@
eh
他们的国家@@
meaningless
olds
altru@@
展望@@
ner-@@
Os
foreign-currency
000万@@
draws
中低收入@@
怨
可以和@@
search@@
结局@@
特殊的@@
毫不奇怪@@
谈判桌@@
horse
下一步@@
acceler@@
poin@@
与否@@
其长期@@
SM@@
争相@@
believers
blood@@
渗@@
增长最快@@
捷克斯洛@@
staged
penurunan
compound
最能@@
正面临着@@
astr@@
的趋势
脱
kami
的成员
野生动物@@
wiel@@
asserting
无穷@@
ast-@@
利润的@@
Compared
僧@@
爱的@@
平庸@@
将大大@@
Corruption
ecti@@
完全的@@
Pra@@
Zion@@
取代
艰巨
非常规货币政策@@
resemb@@
circulation
陌生@@
特朗普政府@@
shy
spared
有鉴于此
隆
美国和中国@@
遗余@@
revenge
Emir@@
vered
ops
Lam@@
确定的@@
嫉@@
的高度@@
私人投资者@@
local-government
逊尼派和@@
1990年代@@
outgoing
est-@@
斐@@
到那时
实现经济@@
proportions
wholly
plague
organ
不错@@
积极
将再次@@
Working
upholding
析@@
涌向@@
所占@@
rendering
临床试验@@
Ali@@
ament
holi@@
diarrhea
ICT
踪
为代价@@
法兰@@
condemnation
variant
投入了@@
3.3
不会
挑战和@@
coal-fired
默许@@
的协议
池@@
Meskipun
脚步
drow@@
发生后
curbing
aud@@
fixing
地球的@@
auc@@
复仇@@
百万人@@
演讲中
inclusiveness
出售
诅@@
fair@@
Massachusetts
设计的@@
的前任@@
谨@@
枝@@
tionalism
еді
资助
desp@@
筹资@@
и
Blu@@
汉密尔顿@@
占到了@@
的速度增长
革命性@@
ау@@
conv@@
可能不会@@
unya
withdrew
confin@@
neutrali@@
Damascus
钱的@@
Czechoslovakia
在20世纪@@
不断增加的@@
tists
而遭到@@
scra@@
externalities
遥远
stating
national-security
Tus@@
sigh@@
epidemics
慨
吞并克里米亚@@
沙特
重新获得@@
out-@@
tom@@
让伊朗@@
世界需要@@
制造业和@@
首相
custo@@
惩@@
condemn
砸@@
menuju
指挥官@@
dish@@
研究中心@@
Aside
强硬
图书@@
永远无法@@
聚焦于@@
deadline
rogue
resent@@
乌拉圭@@
托克@@
probable
排除在外
Not@@
eating
announcing
何时
heart@@
索尔@@
自身利益@@
延续
也受到了@@
货币贬值
killers
光是在@@
自满@@
提供帮助
criti@@
tox@@
退欧
anci@@
fastest-growing
pie
萨默@@
排名
versions
做些@@
埃及人@@
bara
海峡@@
191@@
痛的@@
攻势@@
unitas
heating
憎@@
联合起来@@
abortion
crossroads
催化@@
这里的@@
奥地利
管道
Likud
practition@@
passion
政治和社会@@
casu@@
gue
它能够@@
黎巴嫩的@@
追随者
手可@@
ny@@
vests
宇@@
共鸣
department
cem@@
real-world
其结果是
洛杉@@
advocacy
nationality
langk@@
GN@@
已经失去了@@
NASA
妨碍了@@
tify
攻
烟
专注@@
disadvantaged
2001年
裁量@@
employing
政治家
增加了
晚些@@
乌里韦@@
drome
maneu@@
因此也@@
引人注目
怎样的@@
他们不@@
trib@@
英国在@@
令人失望@@
Suppose
inci@@
仇外@@
艾哈迈@@
发言人@@
的讨论
conscience
已经超过了@@
但显然@@
谣@@
apped
underscore
100万@@
灵活性@@
hn
距@@
www@@
Twenty
logis@@
Kirchner
可知
voluntarily
轨迹@@
高质量的@@
asp@@
recapitalization
的公众@@
lian
combining
欧洲中央银行@@
三月@@
利比亚和@@
惜@@
高油价@@
racism
arsenals
capitalize
2.8
厚
读
后期@@
catalyze
所采取的@@
阿赫@@
ында
软件
locking
嫁@@
severity
Zedong
普通的@@
查
才有@@
doses
末日@@
叙利亚难民@@
在该地区@@
十字@@
过度的@@
悄@@
Xinjiang
20世纪80年代
加入欧盟
碎片@@
isme
写入@@
khu@@
Е@@
membuat
taboo
四分@@
律师
grab
展示了@@
RMB
dow
teen@@
Luc@@
reviews
bloodshed
这导致了@@
盲目@@
报告中@@
hari
投了@@
亿万富翁@@
goodwill
骗
wide@@
大马士@@
几乎完全@@
资本市场的@@
收到了@@
Dom@@
Tw@@
alah
nly
角度来看
奥巴马医@@
otyp@@
价格稳定@@
random@@
contracted
核设施@@
资不抵债@@
有趣的是
收效@@
在全球范围内@@
几种@@
recomm@@
settings
政体
炸弹
断然@@
当其@@
devaluations
imperi@@
增加和@@
筑@@
乌克兰和@@
lax
和海@@
surrog@@
dance
heroes
无一@@
occupations
然后是@@
政府还@@
attribu@@
打交道
控股@@
St.
霸主@@
inadvert@@
Chernobyl
ull
stupid
詹@@
contin@@
recruit@@
recoveries
阿萨德
kerj@@
impetus
stor@@
原则上@@
恐怖分子的@@
国家主权@@
趋于@@
rique
branches
像美国@@
反映在@@
伟大
1950s
站不住脚@@
界线
拥挤@@
ific@@
企图
葛@@
控制在@@
liberalizing
沃尔玛@@
狂
West@@
underpinning
top-down
produc@@
都存在@@
zhou
也
stresses
其他
confusing
punitive
wrec@@
gious
progres@@
wealthier
他们能@@
interfere
这一方法@@
Xia@@
Carbon
检察@@
lofty
imon
interior
齐心协力@@
tour
judging
应用于@@
shattered
巩固了@@
fast-growing
enforcing
旨@@
格林@@
敌人的@@
thoroughly
轮
Governance
盼@@
退化@@
传统智慧@@
Croatia
收支平衡@@
дер@@
sers
looms
Out
使人们@@
与我们@@
1960年@@
初期@@
Presid@@
hierarch@@
codes
注资@@
解读
sister
倒是@@
Well
bond-@@
步履@@
共同体
reau
bolstering
可能引发@@
事故
dimana
可能给@@
最大限度@@
单一市场
堆积@@
Lawrence
akh@@
部分的@@
一同@@
法基@@
hubris
honest@@
liked
谈到@@
4,000
侵害@@
GO@@
ative-@@
团体的@@
的那些@@
技巧@@
重要角色
之中的@@
complex@@
投机性@@
rels
对希腊@@
spl@@
受教育@@
vious
Pur@@
directions
国际秩序@@
延伸到@@
populous
进行的
锁定@@
他们能够@@
arious
不久
甚于@@
SPD
survivors
public-debt
rings
悬而未决@@
科学和@@
的信念
Stanley
anak-anak
军事实@@
完成的任务
dare
共产主义
各国领导人@@
支持者的@@
金融监管@@
的选择@@
nilai
孔
命令
无疑
盐@@
遇刺@@
500万@@
治疗的@@
阶级
guaranteeing
和个人@@
beha@@
Anglo-Saxon
xenophobia
xenopho@@
yak
allevi@@
motive
3月
FA@@
已经为@@
Jeffrey
季莫@@
很显然@@
尽一切@@
broadcast
蔑视@@
率先@@
的经济复苏@@
总的来说
2007-@@
切地@@
anti-establishment
现场@@
existent
不对称@@
农业和@@
abili@@
教士@@
锋
对欧洲的@@
他的
underpins
fascist
fascism
不可能的
机会和@@
starkly
Dan
hotel
的数字@@
保密@@
pron@@
edy
settlers
Grexit
外科@@
麦肯锡@@
的内部@@
在发达国家@@
tifada
波利@@
erals
泰勒@@
流传@@
Chech@@
Chinese-@@
遗憾
债券持有人@@
etapkan
uprisings
Munich
土壤
仅仅因为@@
strained
Sett@@
部的@@
lia
以应对@@
verdict
discouraged
redress
hosting
converted
ske@@
temper@@
国内经济@@
的大学@@
地被@@
flu
fle
,000名@@
licity
阿萨德的@@
西奈半岛@@
总能@@
infant
massac@@
Problem
会员@@
Rabin
匆忙@@
牢记@@
ior
习
Abkhazia
尼加拉@@
财政紧缩
激进分子@@
生死@@
并不那么@@
R-@@
俗
的相关@@
我们可能@@
lihat
和西方@@
只是为了@@
bars
什图@@
bash@@
entara
inclin@@
专属@@
看出@@
非洲裔@@
的女性@@
参加了@@
exact
美国可以@@
发起的@@
欧洲国家的@@
援
autocracy
指导
жү@@
其次@@
10亿@@
另一次@@
周年
痛苦和@@
Game
的主要原因
治理的@@
但同时也@@
写照
革新@@
两家@@
Comm@@
美国总统巴拉克
将通过@@
根基
sixth
uneven
assimil@@
这一观点
jump
理论的@@
Samuelson
固定资产@@
ł@@
一个更加@@
新成员国@@
shal
友
tanian
风险管理@@
摩根@@
实行
侵蚀
远大于@@
解释是@@
的建议@@
anth@@
拉夫@@
之旅@@
减贫@@
引
伊斯兰世界@@
忽@@
在这一点@@
罪行的@@
widened
Manmohan
cease
空洞@@
wholesale
TR@@
did@@
sponsors
和许多@@
结婚@@
Zionism
提及
已经将@@
blue-@@
Nov@@
askan
正逐渐@@
Consumer
这一模式@@
免除@@
的受害者
negoti@@
Deb@@
2亿@@
可以解释@@
Balkan
dukung
但这并不是@@
蛊@@
cus@@
肌@@
过热@@
collaborative
lee@@
设在@@
celebration
aki
spec@@
掌权的@@
病人的@@
如果欧盟@@
的关注@@
其核@@
施以@@
的建议
敏@@
明朗
更糟
Salvador
iden
为实现@@
20年的@@
rop@@
contempt
strive
案件
受害者的@@
调解@@
挪威
出身@@
框架内@@
阿拉伯国家的@@
美丽@@
册@@
感染
Р@@
吉拉@@
震
wrought
Millions
African@@
Frankfurt
将不再@@
游击@@
unveiled
的状况
付
分崩离析
的一个关键@@
dragged
琳@@
避风@@
沉迷于@@
Himal@@
链
的崛起@@
decay
纽约市@@
slavery
stringent
beating
陪@@
domain
中只有@@
draw@@
TTIP@@
humiliating
品质@@
掌握着@@
坛
运行的@@
桑托斯@@
置信@@
Being
球迷@@
Silva
predicament
cious
肆虐@@
мер@@
colo@@
Zar@@
枯@@
disd@@
中国的
争辩@@
consci@@
会引起@@
毁灭性@@
当初@@
被人们@@
wak@@
兑美元@@
pendekatan
甜@@
是另一个@@
目睹了@@
acquisition
Risk
rolled
z-@@
翻了一@@
相对
demics
ising
男人@@
coincidence
Kah@@
hiding
planting
的内容@@
战役@@
Rice
Britons
无论是在@@
经济刺激@@
1931
idden
这一转变@@
亲自@@
焚@@
丽
translated
温床
Bis@@
ram@@
可行的
intellectu@@
sion-@@
克罗地亚@@
也无@@
友好的@@
而日本@@
遗传学@@
积累
这片@@
引进@@
楼
化合物@@
也相当@@
itely
该法案@@
失踪@@
种族主义@@
1944
特别是当@@
退出的@@
ideologies
ralization
PLA
1930年代@@
succumb
universally
Some@@
绵@@
mak@@
decreas@@
simplistic
ventions
Fat@@
铲@@
大约为@@
亏损@@
但并没有@@
移动电话@@
人们会@@
借用@@
哈耶@@
intend
tivi@@
本该@@
狐@@
不能
劳动力参与@@
allegi@@
仪式@@
游
exo@@
ura
20年代@@
blaming
全球经济危机@@
spheres
洞见
overheating
ange@@
他人的@@
白俄罗斯@@
Serbian
对一个@@
要么是@@
perfor@@
supranational
数目@@
aggravated
skep@@
将很快@@
令人震惊
ironic
commodity-@@
进入到@@
屈从于@@
泄露@@
比作@@
articles
大幅增加
Cat@@
从欧洲@@
combatants
加利福尼亚州@@
确认
人性@@
federalism
逍遥法@@
BEACH
mengi@@
会持续@@
Iron
ac
igners
的例子@@
辉煌@@
否决权
日本和韩国@@
产生于@@
vessels
抛弃
得很@@
的对象
Saud
electron@@
attached
纳税人
oking
萌@@
领袖们@@
ech
永恒@@
在理想@@
建筑
的最重要@@
belli@@
投入到@@
所付出的@@
新总统@@
ç@@
Rou@@
5,@@
一心@@
壁@@
conto@@
dus
欧盟应该@@
hypothesis
presid@@
推理@@
bits
科学研究@@
与日俱增
意识形态的@@
自发@@
铺平了道路
生活方式
eviden@@
workable
idal
uniform
带来了巨大的@@
富有
Boston
hierarchy
极力@@
taxpayer
防火@@
草根@@
这个
在一起的@@
inher@@
贩毒@@
权力和@@
独裁统治@@
isolate
macro
euph@@
忌惮@@
法规
asty
会受到@@
轮值主席@@
和其他国家的@@
Case
重新定义@@
bind
斯洛伐克@@
将欧洲@@
是巨大的
起作用@@
仍没有@@
归
trou@@
夕
和暴力@@
半球@@
puni@@
可信度
制定出@@
竞争和@@
这些问题的@@
这种现象@@
Columbia
kkan
斯坦福
transferring
audiences
还有许多@@
的经济和社会@@
刻
curi@@
医疗体系@@
Respon@@
靠
Six
offense
Bec@@
的就是@@
otic
IV@@
dau@@
Alas
的存在
shorter
以促进@@
Danish
下半@@
STANFORD
样的
Low@@
empi@@
2010-@@
embol@@
碑
赖于@@
isons
最糟糕@@
塌
大屠杀
风格
耐心
邦的@@
菲利@@
和外部@@
Az@@
CN
取缔@@
眼前@@
吞噬@@
dip
fearing
过来
让你@@
Develop@@
Chang@@
世界最大@@
decision-makers
五年的@@
只关注@@
MDG
clearing
悲观
ion
奥巴马在@@
adju@@
前首相@@
comparing
手握@@
如其@@
conversion
笼罩@@
的经济危机@@
gagal
Avi@@
dane
anom@@
importers
想一@@
passeng@@
Local
在未来几年@@
La
clean-@@
篮子@@
Katrina
Ol@@
高收入国家@@
EP@@
她
reces@@
现已@@
透露@@
地区和全球@@
给
恢复力
流氓@@
抗拒@@
Jackson
SDP
凑@@
lifestyles
在实践@@
几个月
懈@@
对土耳其@@
genom@@
conflict-@@
论调@@
日本首相安倍晋三@@
政府需要@@
温室气体排放
尽管这@@
将得到@@
屠@@
Brexiteers
for-profit
演员@@
nan
过度依赖@@
戴维@@
Coming
ah-@@
fiction
restaurants
爱因斯坦@@
是唯一@@
cid@@
私人投资
银行资本@@
有所帮助
Hi@@
policy-@@
任何国家@@
如果伊朗@@
斯诺登@@
follow@@
unchecked
campaigned
cruel
激情@@
unci@@
retaining
上台
极端天气@@
lli@@
汇聚@@
non-performing
ministerial
ол
活力和@@
伪善@@
indications
第四个@@
聪@@
propel@@
diha@@
该条约@@
dispu@@
meningkat
是件@@
glar@@
Alex@@
salary
走上了@@
南亚
水的@@
弥漫@@
拍卖@@
与合作@@
太大而不能倒
胎
牺牲品
Fili@@
货币操纵@@
consoli@@
deterrent
colli@@
extern@@
证明了这一点
ambiguity
第三方@@
缓解
tuous
SWFs
Saakashvili
slight
海域@@
traumatic
Stal@@
filling
epi@@
random
比例的@@
他自己@@
处决@@
边缘化@@
Sheikh
坏消息@@
更多的钱@@
arose
shir@@
Something
活跃
健康状况@@
23and@@
希望在@@
costing
怀有@@
移植@@
promptly
神话
来临
confronts
mines
期间的@@
学校和@@
细分@@
tempting
nationwide
李明博@@
控制权@@
圈
dru@@
sterling
或者在@@
棘手
Yemen@@
anced
新高
更低@@
美国和日本@@
cardi@@
leaning
有人认为@@
喜马拉雅@@
belongs
2006年的@@
的公司
宝座
hind@@
订立@@
Leg@@
不承认@@
来说都是@@
资金用于@@
的分析@@
align@@
Fif@@
org
障@@
也正是@@
克和@@
是一个
Plenum
递交@@
自然而然@@
的社会
当选的@@
政府间@@
苦难
营养
联合国秘书长潘基文@@
雅典
米尔顿
如果希腊@@
不大可能@@
柴@@
航天@@
blunt
侨汇@@
帐户@@
一直没有@@
掣肘
乌兹别@@
更糟的是
伍
knowledge-@@
CDU
93
原因有@@
政府正在@@
的过度@@
大范围@@
characterize
battlefield
smarter
invoked
伊朗政府@@
的产物
趋同
英里@@
天生@@
引人注@@
worn
如果能够@@
Manch@@
惟@@
低得多
ains
sterili@@
一带一路
Sil@@
从某种程度上@@
transcend
amelior@@
篮@@
expecting
立场的@@
caliphate
很可能是@@
新兴国家的@@
proyek
纳德
merchan@@
耶伦@@
的批评@@
sibility
wearing
soul
Elsewhere
拉丁@@
designated
匿@@
而印度@@
不懈@@
地支持@@
令人鼓舞@@
18个月@@
希尔@@
迅速地@@
砍@@
қал@@
世界正在@@
lobbyists
five-@@
ODA
requested
2003年
uny@@
持不同政见@@
后危机@@
completing
与此相反
underscored
纠正
turbulent
首位@@
宏@@
霍乱@@
指令
dwind@@
太阳能
suffice
旬
1亿@@
friction
术语@@
societal
对印度@@
权力机构@@
tability
增值税@@
last-@@
生产力的@@
Yun@@
venge@@
的一体@@
政府机构@@
不错
采取
similarities
reproductive
forging
法制@@
基础上的@@
coff@@
cer
Bou@@
这要求@@
Akan
我们与@@
六方@@
吹嘘@@
hawks
Bom@@
学历@@
五十年@@
德斯@@
后不久
经常项目盈余
implicitly
dynasty
10万@@
SCO
军队和@@
就显得@@
slau@@
oversee
蚊子@@
占有@@
year-@@
校园@@
评级
refra@@
地讲
convenience
apak@@
babies
cate@@
articulated
2018年@@
arbon@@
裹@@
walking
结合起来
就是要@@
countryside
misses
忌
更是如此
美俄@@
世界主要@@
现实的
reign
的战略
protective
会发生什么
的美元@@
Battle
foreseen
对德国@@
之前就@@
0.0@@
Technolo@@
不仅没有@@
cease@@
DA
达沃@@
至关重要的
killer
的协议@@
siz@@
rupe@@
证实了@@
iron@@
局限
稳
穆斯林国家@@
还不够
所要求的@@
gical
proportion@@
Israel-Palestine
流动性和@@
so-@@
援助计划@@
ouring
但经济@@
养活@@
歇尔
该项目@@
后代
anchored
作品
国与@@
验证@@
对于一个@@
萨默斯
欧洲和日本@@
ының
collecting
营养不良
leisure
侮辱@@
genous
yama
trick
的存在@@
dominates
Democ@@
arg@@
Azerbaijan
巴黎协定@@
sendiri
simultaneous
sky@@
的国家之一
在解决@@
已经开始
阿勒颇@@
gem@@
龄
无处@@
sac@@
ado
来了@@
苏丹
渊@@
动摇
国家庭@@
真诚@@
edless
从历史@@
动态
加息@@
Enlightenment
预料到@@
绝不能@@
碳定价@@
Kita
的对立@@
84
染
dilemmas
出口导向型@@
politicized
alienated
2500@@
比较优势@@
还是有@@
早期
能与@@
量化宽松政策@@
推高了@@
达尔@@
起源@@
自2000年@@
目的地@@
它们还@@
乡村@@
愧@@
asal
越过@@
Murdoch
bureauc@@
更加严重
搁@@
作出的@@
耶鲁@@
单个@@
捕获@@
嫌疑@@
轴心
DP
innov@@
tacit
但特朗普@@
以解决@@
aster
扁@@
宰
对市场@@
也有人@@
已经非常@@
的快速@@
欧洲人
乃是@@
ек@@
犹豫不@@
exuber@@
endorsement
极易@@
FBI
雕@@
肯尼亚
艾哈迈迪@@
lengthy
退休基金@@
tai
1.9
divert
顺差
provo@@
决定的@@
spokes@@
供应链
藉@@
考试@@
Dist@@
抗药性@@
欠缺@@
lucrative
保留
阿联酋@@
1968年@@
economic-policy
趋向@@
幅度
将军们@@
bolstered
在过去两年@@
这也许是@@
相差@@
stuff
上层@@
excitement
mendorong
assessed
depreci@@
}
商业
济于事
科夫斯基@@
顾及@@
ghters
放贷@@
便
1982年@@
世界最大的@@
presupposes
natural-resource
algorith@@
祖国
数十亿美元@@
强加给@@
耗尽
but@@
安全问题
konflik
liqu@@
和自由@@
Fidel
已故的@@
彼得
Tanzania
depreciated
没收@@
paci@@
罗格夫@@
tanpa
洛
unted
umen
Tymoshenko
塞拉利昂@@
榜样@@
价值观的@@
kecil
zombie
departments
高速公路@@
concludes
开发和@@
四分之三@@
Milosevic
usage
阿布哈@@
oward
不可逆转@@
laboratory
alter@@
议会选举@@
其影响@@
combines
extract
jal@@
citing
Havel
real-@@
指出的那样
拉里
tainted
如果是@@
Ya@@
这样的结果@@
kembali
国内部@@
打下@@
grids
日内瓦
mode
suff@@
Tobin
米洛舍@@
书籍@@
ib
我们这些@@
已经证明@@
国会
紧缩政策
修正案@@
卡尔德@@
铁
Sadat
li
恋
以内
不会被@@
排外@@
kow@@
布什政府的@@
beef
repatri@@
depos@@
到2020年
Taking
despo@@
OXFORD
radic@@
Sciences
coups
AKP@@
部分原因是@@
patri@@
讳@@
魁祸首
察
好消息是
和其他许多@@
决定的
atnya
很多人都@@
Uzbe@@
productivity-@@
论的@@
乘数@@
记忆
tification
cable
export-oriented
棱@@
必不可少的
mitigated
tali@@
Bun@@
赞美@@
socio@@
当你@@
cut@@
在这次@@
franch@@
肮脏@@
这一趋势
drift
isolationism
上来
adequacy
dom
其结果是@@
keepers
裔
卡尔德隆@@
one-child
好奇@@
子和@@
cou@@
补救@@
用在@@
冒犯@@
极低@@
决非@@
chapter
individually
1981年@@
它们应该@@
但同时@@
但最近@@
权宜之@@
铭@@
决策者必须@@
unusually
kilo@@
bble
又有@@
好莱坞@@
archit@@
收入和财富@@
succeeding
high-speed
以及一个@@
也只有@@
但你@@
jumped
华沙@@
的管理@@
经济制裁@@
input
奠定了@@
2015年的@@
Disease
十字路@@
vish
和监管@@
的人物
histor@@
abstract
无处不在
peny@@
捆@@
特尔@@
反恐战争@@
系统和@@
伟@@
sentences
岌岌可危
savvy
CDS@@
奥斯曼帝国@@
咨@@
mankind
Rest@@
自此@@
的过程中@@
stolen
eves
desa@@
即便是在@@
与否
能够带来@@
内陆@@
回合@@
从历史上看
发生改变
rhetor@@
vig@@
visit@@
死亡的@@
贵
共担@@
trump
Pon@@
PIS@@
美金
来推动@@
我还@@
深远的影响
炉@@
盈利
通常
斤@@
金融体系的@@
令人沮丧@@
food-@@
伯南克
lingering
无论如何@@
体验
判决
是至关重要的
Capit@@
的过程中
倒台
富裕国家的@@
empowering
债务上限@@
规律@@
不可及
乏
欧盟委员会
使美国@@
Mexic@@
债务负担
Christi@@
维持其@@
房地@@
届政府@@
jihadi
efisi@@
萨达@@
disappearance
了一篇@@
蹒@@
变暖
supplier
人力资本
可能会在@@
Hayek
巧合
定居点
c-@@
俩@@
powerless
金的@@
激进
突显@@
硬
insured
可以预见的@@
拥有核武器@@
ä@@
数十亿@@
主教@@
戈
UNE@@
Dam@@
保护主义的@@
flaw
核扩散@@
联手@@
demikian
因此他们@@
出访@@
灭绝@@
参与其中
他本人@@
IM@@
6,000
占据着@@
邮报
大自然@@
视为
百分点@@
designs
氛围
全球发展@@
plentiful
悲伤@@
科特@@
famine
庞@@
的原则
escaped
nud@@
承认了@@
将中国@@
Post-@@
和疟疾@@
难民和@@
kok
1948年@@
受欢迎的@@
位列@@
的解决方案
可怕
300,000
injections
更紧密@@
ena
embodies
宠@@
Costa
不到
联网@@
关键问题
188@@
碎
上下@@
subdued
过高的@@
formulate
Fa@@
mach@@
uran
来实现
Lessons
bosses
芬
Recognizing
lawsuits
old-fashioned
共和党的@@
下面@@
Schröder
懒@@
curious
货
racy
搁置@@
这些企业@@
favoring
是值得@@
一看
中获胜
propri@@
在伦敦@@
蹂躏@@
clothing
incite
canceled
跟进
爱沙@@
enfor@@
供给侧@@
Buddhist
的成果@@
id-@@
una
contradictions
tale
都很@@
即将到@@
bus@@
160@@
教义@@
atures
sea-@@
的积极@@
莉@@
而不必@@
架构
而与@@
人群的@@
哥斯达黎@@
Maz@@
释放出@@
ventures
政策是@@
经通胀调整的
恢复到@@
越好
discern
被捕@@
生意@@
有一半@@
Nicaragua
konsum@@
所指出的那样
总的@@
大企业@@
hangs
encompas@@
慑
乎
这一次@@
了全球@@
contracting
法官
parallels
杀戮
pro-European
derive
豫
科学家和@@
我们又@@
charity
revise
兄弟
VA
Napoleon
roman@@
长久以来@@
accumulating
专栏@@
噩梦
离心@@
能够将@@
辅助@@
手段的@@
undergo
mism
的组织@@
rivalries
生意
ocratic
址@@
抛弃了@@
国际清算@@
以每年@@
administr@@
covers
全球变暖
十分有限
Wars
spaw@@
EM
mountain
sleep
GO
中发挥@@
monitored
tric
Ster@@
如果在@@
ts@@
corpor@@
自给@@
黄金
PO@@
大错特@@
comb@@
较小@@
subprime
物种
lapping
亲
anti-Semitic
太多
达不到@@
称得上@@
使用武力@@
刊登@@
必须让@@
卡尼@@
Dalam
一点都不@@
emanating
艾伦
roiled
极端主义
multinationals
不属于@@
饭
鹰派@@
出口和@@
RI
plain@@
Lithu@@
提供融资
统计数据@@
asters
在这两个@@
communal
jac@@
总额的@@
仙@@
也得到了@@
奢@@
大楼@@
Grand
时日
jeopardi@@
街道@@
主题
countering
巴巴@@
织@@
学院的@@
healing
更严格的@@
仅有的@@
说服力的@@
导致
ек
几个国家@@
盎格鲁@@
裙带@@
vigorously
meager
Annual
moon
无效@@
斡@@
architects
data-@@
precision
ges@@
泰国
成功的
Nicholas
smoothly
资本外逃@@
升至@@
提炼@@
丢掉@@
的资本@@
牛津
Ref@@
重创@@
成为美国@@
的机构
酒店@@
R2P
Citigroup
Stream
约合@@
sco@@
Presidents
consolidated
显而易见的
加深
斯基
requests
nationalistic
微小@@
ei
disrup@@
structive
cro@@
水电@@
y-wide
hs
renew@@
堕胎@@
equals
灌@@
G-7@@
highs
催@@
已成@@
民族国家
曲
因此必须@@
sub-Saharan
kov
源头@@
三位@@
句
bak@@
赋
backstop
党员@@
扩展到@@
更少
野
民主政治@@
Domestic
Khomeini
provider
surgical
憎恨@@
给人@@
labor@@
情报
dup
铭记@@
conservatism
Prague
atis@@
沃尔福威茨@@
广为@@
Dominique
ыс
但是现在@@
Angel@@
constituted
刘晓波@@
扭@@
雄心
官员和@@
relating
Ear@@
牧师@@
Guang@@
anti-immigrant
政治联盟@@
会令@@
定于@@
厉@@
创造了一个@@
dles
subj@@
出台
法则@@
murderous
过去两年@@
室内@@
党派的@@
因为中国@@
here@@
与他们@@
Pap@@
他和@@
臭名昭著的@@
Ak@@
protocol
riskier
ually
骇人听闻@@
oused
tat@@
old-@@
共同点
继任者
uation
spheric
紧紧@@
容忍
政府间气候变化@@
基辅@@
清晰地@@
pern@@
在社会@@
严重问题
aspire
wear
的道路
数字化@@
conspicu@@
经济停滞@@
adop@@
做得更好
rum@@
这些都@@
vide@@
核反应堆@@
特使@@
迄今@@
与会者@@
的资源@@
下降和@@
extinc@@
Rise
Paradoxically
tto
suppressed
Challenge
警示@@
货币当局@@
On@@
CTBT
价值和@@
Nigerian
publishing
飞
了超过@@
要把@@
和地方@@
criticizing
无家可@@
福音@@
Lev@@
磋商@@
回想@@
伤亡
取得的@@
穆罕默德@@
concei@@
并承诺@@
桥梁@@
BS
源头
喜
禽@@
也不应@@
mandated
装置@@
Jean
covert
迈进@@
杀虫剂@@
一千@@
基什内@@
unilateralism
祝@@
instances
safeguarding
contacts
desert
强硬的@@
berdasarkan
类型
itz@@
拱@@
Fight
在发展中国家@@
velo@@
adul@@
1949
嫌
tribunal
top-@@
vere@@
至今仍@@
引人注目@@
打交道@@
illusions
modal
Pradesh
切尼@@
ía
arrow
的政治和经济@@
前所未有地@@
该区域@@
全欧洲@@
separated
dumping
guilt
界线@@
admi@@
inquiry
livestock
歧@@
怀疑派@@
墨尔@@
进行谈判
circu@@
itions
waging
本身就是@@
现在也@@
拥有一个@@
都知道@@
空白
个基点
hurricanes
premise
巴林@@
与日本@@
invite
泡沫破裂@@
与经济@@
纪录
的必要性
在不同@@
jen@@
浇@@
嗤之以@@
melting
孩@@
工会
tag@@
lawmakers
快乐@@
restructured
巴菲@@
secularism
一定程度的@@
傲@@
的不良@@
纵容@@
grouping
多米尼@@
无误@@
智
肚@@
Iran@@
是美国的@@
屑@@
使它们@@
极低
格格不@@
司令@@
挽回@@
妨@@
experimentation
主流
饥饿和@@
以满足@@
首先要@@
以降低@@
朋友和@@
ousing
都会被@@
作为一名@@
衍生@@
Current
的任务@@
murde@@
这些数据@@
能够实现@@
硅@@
辍@@
劫持@@
apun
注意到
Survey
希
water@@
吻@@
config@@
ided
encountered
Jimmy
他们是否@@
国有企业
3000@@
其二
是有限@@
国际能源@@
排除了@@
穷人和@@
恶意@@
该基金@@
要归功于@@
的时间内@@
聆@@
research@@
军国@@
妈@@
veness
法院的@@
从不@@
因为政府@@
SS@@
组成了@@
vocational
Moun@@
贸易赤字
既然如此
squandered
年代
在许多国家
中叶@@
accid@@
happily
撞
酒精@@
accepts
有用
的人才@@
2000-@@
1971年@@
ber-@@
attribute
人选@@
negligible
没人知道@@
bidding
很好的例子
可以用来@@
制定一个@@
更换@@
suits
Geo@@
会说
合理地@@
skyrocke@@
决策者应该@@
journal
言不@@
rumors
在这方面的@@
digi@@
0s
另一方@@
sovereign-@@
Yale
shake
rock
expon@@
圣地亚哥
战时@@
能从@@
宗教的@@
中国人民@@
legality
统计数字@@
列入@@
的想法@@
它不会@@
扩大其@@
mosquit@@
CITY
误解
共享
西雅@@
落实
急速@@
full-blown
转移到了@@
batas
蒙
了政治@@
6,@@
一党@@
嘲笑@@
Provi@@
boat
安理@@
同情
恶性循环@@
无关紧要@@
效仿
dictates
应该获得@@
jalan
calculus
运送@@
colonialism
油田@@
大不@@
ей@@
赵@@
challeng@@
couldn
uniquely
奇了
降雨@@
波士顿@@
信徒@@
通过与@@
alienation
Kyr@@
歪@@
undeniable
cians
委员会主席@@
retire
已经结束
单靠@@
ville
美国官员@@
这些目标@@
和东欧@@
Efforts
cash-@@
日益增加
大到@@
都不可能@@
问题不在于@@
得到
不惜一切代价@@
外币@@
Tocqueville
强劲的@@
买
Struc@@
plastic
在此过程中
骄傲
洗
常常会@@
milestone
技术性@@
慕尼黑@@
Andre@@
prop
declarations
Westerners
retali@@
Equ@@
厢@@
110
的亚洲@@
expands
berbagai
绩
hat
有两@@
巴勒斯坦国@@
drilling
substan@@
constraining
encoura@@
见到@@
brutally
Has
僵尸@@
egregious
缓冲
obsc@@
awal
therapies
莫桑比@@
情绪的@@
cel
芝加哥
implosion
波兰人@@
应对措施
各式各@@
凝@@
躲避@@
给自己@@
circul@@
olf
sway
的妇女@@
Princi@@
标准普尔@@
从全球@@
bor
更早@@
豁@@
都具有@@
陈词@@
祖先@@
冷战
欧盟成员国的@@
由此造成的@@
做过@@
一年前@@
比索@@
在过去20年@@
锚@@
在华盛顿@@
laim
Success@@
NGO@@
millen@@
竭@@
aha
否则的话
radio@@
沙特人@@
Bhutan
immunity
Loc@@
exert
劲@@
identification
的对外@@
原教旨主义者@@
并从@@
Apart
自由主义的@@
circ@@
lays
壳@@
上周
trains
2008-@@
20世纪70年代
想象一下@@
贵族@@
如是说
resurrec@@
CPI
1500@@
distort
-related
保持沉默
行动方
criterion
бір@@
birds
aha@@
海湾国家@@
agn@@
马来@@
走了@@
推测@@
立足@@
eld@@
呼声
Transi@@
Catalonia
Unsurprisingly
Rud@@
短期利率@@
akhirnya
Vatican
他们把@@
eland
alignment
减免
但这只是@@
calamity
instant
comment
管齐下
他国@@
和财政@@
全民公决
SEC
ilai
gung
adapting
Michel@@
然后再@@
胜于@@
钻石@@
相比之下@@
贸易协议@@
袭击的@@
eco@@
,000-@@
reckoning
取得了成功
钦斯基@@
gas-@@
感觉到@@
朔伊布勒@@
对他的@@
精神的@@
的银行
袖手旁观
都已@@
曝@@
seum
stru
适应性@@
错综@@
quitous
Eichengreen
suatu
wishful
Ev@@
unraveling
helm
finite
被动@@
kat
影响深远@@
足联@@
期限
不出所@@
Khatami
珊@@
bidang
的最终@@
覆
phenomena
开始时@@
komit@@
现存@@
preparation
natural-@@
kota
以此来@@
excellence
heavi@@
桥梁
炮制@@
条件是@@
债券购买@@
迥@@
amendments
inexpensive
两国都@@
设计和@@
stitu@@
copper
uspic@@
指的是@@
sympath@@
经济危机
之上@@
马琳
stubbor@@
下定@@
oria
Nig@@
很长的路要走
经济问题
突变@@
天才@@
各种各样的@@
Belt
dical
overvalued
sial
人选
都是由@@
工具和@@
scholar
招聘@@
中美两国@@
巴勒斯坦民族@@
Further
强势
Zha@@
随心@@
telephone
挽@@
halted
doubtful
走到了@@
克制
schedule
的证据
Agriculture
手机
Pa@@
regret
这将会@@
commensurate
扰乱@@
书记@@
之事
鹅@@
attributable
巴勒斯坦权力机构@@
考量@@
在全球经济@@
fathers
blocs
immoral
masters
overha@@
既定@@
房地产
mile
近几十年来@@
无遗
mary
GDP的1
Kh@@
tempat
民主党的@@
解决这一问题
2014年的@@
没有了@@
图景
Bosnian
竟@@
出租车@@
tow@@
在此过程中@@
Pax
正处在@@
phased
人们
betting
意义上讲
ND@@
收益的@@
Gl@@
harm@@
ple
SANT@@
顷@@
exploring
发生了变化
detainees
子里@@
longest
顺差@@
立陶@@
reformasi
手的@@
fortunate
violating
银行家
稳固@@
出现了
退休
不断扩大
采用
堕落@@
appropriately
Leadership
hasn
bian
中所占@@
大军
lash
解决之道
并减少@@
之处在于@@
ұм@@
的出现@@
长期停滞
南部的@@
医疗服务@@
幽灵@@
sevente@@
navig@@
相互依存@@
Athens
罪恶@@
repar@@
但与此同时
RC
古代@@
俄罗斯天然气工业@@
可以把@@
compulsory
angnya
reviewed
政局@@
会见@@
Consequently
上海
种类@@
和维持@@
冲击的@@
瞻@@
暗杀@@
rencana
label
encro@@
匪@@
ravaged
才刚刚@@
Maj@@
在埃及@@
能源供应@@
地图
的伊拉克@@
rental
Prov@@
他没有@@
ketidak@@
重新谈判@@
debating
提到了@@
middle-@@
ectively
地质@@
单枪匹马@@
业绩@@
轴@@
扎尔@@
需要进行@@
迁往@@
opport@@
本人的@@
毁灭性的@@
vez
tightly
常任理事国
农村地区
税收制度@@
施加压力
soar
丁
能对@@
和印度@@
由国家@@
func@@
合法化
正式的@@
cann@@
segment
赠@@
supremacy
wounds
aber@@
Dru@@
斗争中@@
二氧化碳排放
centric
肆无@@
旧金山@@
份子
最脆弱@@
practiced
pec@@
intelli@@
养
欧安@@
不开@@
是出于@@
战火@@
半个@@
养老金
prepar@@
勿@@
appalling
addiction
决定着@@
fab@@
ша
climb
comprehend
indungi
猜测
不力
тал@@
的首要@@
二氧化碳排放量@@
RAN@@
丰厚的@@
报告显示
vian
状
研究成果@@
其他一些@@
athed
fer
bering
layed
resumption
Roughly
欧洲央行行长德拉吉@@
ubi@@
还不是@@
来形容@@
扩张的@@
不堪重@@
这些事件@@
impediments
结束后
一个事实
immen@@
藏
勘探@@
它可能@@
ingat
遇到了@@
远未@@
例证
有时甚至@@
hyd@@
股市
应该以@@
linguistic
去年12月@@
行之@@
在目前@@
西亚@@
tiveness
generic
Bear
踪@@
全国性@@
在财政@@
他们正在@@
段
到2050年
出人意料地@@
discriminate
的成年@@
会影响@@
t-time
sumption
enn@@
fringe
统
矿产@@
Uni
unfettered
干脆@@
金钱
inferior
本国货币@@
在日本
geneous
粗暴@@
完全不@@
偿还
建立新的@@
iah
bir@@
将被迫@@
couples
kills
外交和@@
decade-@@
港口
stagnating
Vacc@@
气氛@@
石油公司
control@@
memer@@
常态@@
worthiness
routes
通胀率
长期增长@@
swiftly
slogans
Prog@@
外国直接投资@@
oriously
坚定不@@
从未有过@@
staff@@
他们说
testimony
克鲁格曼
lateral
son@@
价值观和@@
人员和@@
reiterated
创设@@
Mili@@
更为重要的是
两年的@@
bawah
artists
踢@@
一组@@
忽略不@@
就成为@@
proteins
entitlements
asement
舒适@@
dampen
参谋@@
pregnant
private-@@
押
意义的
爵@@
新生儿@@
不断上升
所受@@
丝毫@@
的境地
incumbents
py@@
出路
以色列政府@@
英国独立@@
两岸@@
双边关系
Everything
排
社区的@@
haircut
genius
ez
Initially
而只是@@
也未能@@
他就@@
实力和@@
ustices
printed
解释了为何@@
turn@@
风能
西奈@@
说话@@
群众
出现过@@
佩雷斯@@
多家@@
恒@@
人员的@@
日后@@
奇的@@
dogs
ention@@
但德国@@
purge
错失@@
远见卓@@
fines
严重的经济@@
是政府@@
美国和欧洲的@@
枯竭@@
是从@@
ignorant
SCO@@
ired
了中国@@
羡@@
regul@@
他人
langu@@
第一次
具
哈塔@@
Barry
侵犯人权@@
的状况@@
dupan
的话题
aspi@@
在埃及
SW@@
的动机@@
微
少之又@@
Gh@@
那么多@@
清真寺@@
尼斯@@
continually
plying
suspicions
rov
Therefore
sterity
eminent
tling
上涨了@@
Chri@@
за@@
享受着@@
韩国人@@
美国总统大选@@
诞生
摩擦
preferable
170
的策略
袭击了@@
劳力@@
meddling
追逐@@
Portuguese
肆虐
成绩
僵化的@@
疫苗的@@
鉴@@
国内和@@
起源于@@
Gerhard
highway
Club
住在@@
blown
目前为止
议会中@@
区分
Interestingly
sellers
relentlessly
incorporated
成为一种@@
broadening
rescu@@
银行监管@@
尽
的希望
所做出的@@
finish
其他人
咒@@
创纪录的@@
出台了@@
别国@@
undemocratic
梵蒂冈@@
加盟@@
李光耀@@
切尔诺贝利@@
panacea
oled
培训和@@
国际法
Трамп
reci@@
埃及总统@@
欧盟成员@@
Pent@@
Tetapi
pleasure
长期停滞@@
ddled
自卫队@@
Magh@@
25年
anxie@@
surpass
纵观@@
not-@@
是十分@@
臂之力
Scandinavi@@
的人力@@
Ran@@
assemb@@
equation
recover@@
明证
Eurasia
在6月@@
口气
gau@@
impaired
潮流
的感觉
围绕着@@
Eis@@
得多@@
宾
Admittedly
bribes
中的一个@@
和联合国@@
tory
mortgage-@@
进口的@@
制衡
私人部门
ensu@@
bagaimana
推行
袒@@
说的@@
沙特阿拉伯和@@
眼前
sity
350
orious
为中国@@
menyebabkan
farther
graphic
superfic@@
的证据@@
更倾向于@@
weakest
spra@@
.8
guerrilla
offsetting
监禁
vable
曼努@@
encounter
这相当于@@
具有讽刺意味的是
喜欢
Dou@@
Peña
利比里亚@@
肇@@
欧盟预算@@
分享
平常@@
窒@@
Responsibility
和一个@@
与印度@@
浪漫@@
descendants
费舍@@
年轻人失业率@@
的信号@@
丧命
中国国家主席习近平@@
取悦@@
极端贫困
31@@
internationalization
哈佛大学的@@
SGP
briefly
friendship
启
这一状况@@
fisheries
tivitas
年份@@
stere@@
discrepan@@
dically
增税
却又@@
beauty
absorbed
监察@@
downgrade
下降了
穆斯林的@@
半岛电视台@@
Elizabeth
sat
任务的@@
黑色@@
亚投@@
accur@@
中都@@
拾@@
道而@@
少于@@
说过
犀@@
Nieto
impa@@
从其@@
wounded
能源效率@@
often-@@
observer
plummeting
meas@@
Cities
金融时报
统治下的@@
中部@@
analogous
实际
Panama
当人们@@
割
公共资金@@
sourced
在那里
victories
10亿美元
积压@@
才华@@
科威@@
研究发现
不是因为@@
peaked
keys
螺@@
一直被@@
Mec@@
brac@@
意欲@@
名誉@@
从此@@
战败@@
进行合作
几周
MH@@
IV
law-@@
operators
Bannon
揽子@@
受伤@@
admir@@
原因是
却未能@@
来处理@@
Hope
technolo@@
Jonathan
缓和
assertiveness
加强对@@
的是一个@@
fabric
skewed
opposes
Corporate
事务上@@
dament@@
掠@@
茨基@@
畸@@
prostitu@@
现在我们@@
温室@@
averaging
日益增加的@@
读者@@
驱动的@@
吃惊
阻止
保持
出国@@
背负@@
awab
统治者
mutations
之间的联系@@
sympa@@
加斯@@
背负着@@
suspects
subscri@@
伯特
的财政政策@@
诺斯@@
规定了@@
Salman
burgeoning
将更加@@
conventions
储蓄率
提供更多的@@
WW@@
repeating
他们无法@@
-all
内罗@@
Commissioner
yester@@
共和党
税收的@@
exten@@
氮@@
possessed
red@@
全球金融危机爆发@@
porters
解决的问题
第六@@
从这个角度看
ause
Yukos
劳动力成本@@
负起@@
ке
芽@@
同时在@@
topple
Democrat
未被@@
mirac@@
这个问题的@@
下一场@@
几
enrich
自力更生@@
district
上学
首个@@
他自己的@@
wondering
hen@@
缔约@@
keku@@
提醒我们
altered
调查显示
outpac@@
意识到了@@
spearheaded
就是为了@@
nish
差不多
marke@@
材
imagin@@
肿@@
Tunisian
zer
thes
ю@@
implo@@
愿意为@@
Call
combus@@
膜@@
pus
航班@@
圭@@
provi@@
狡@@
capitalists
contexts
攸@@
不但要@@
坚定
mini-@@
特朗@@
萨卡什@@
billionaire
者所@@
已久
JCP@@
包括那些@@
itarian
挠
思想和@@
出生的@@
-of-GDP
枪
技巧
需要为@@
assure
不断增加@@
救助
UNICE@@
inary
viruses
还是会@@
corn
成立了一个@@
Negoti@@
受到威胁
处方@@
维也@@
逃税@@
icking
只有2
dul
利他@@
代议@@
研究了@@
erratic
蠢
这一局面@@
illiquid
12个@@
所有权
propag@@
坦桑尼亚@@
此前
sinking
所扮演@@
bite
部署
有价值的@@
lang@@
semb@@
里斯
prescrip@@
tre
公开市场@@
孤立主义@@
泡沫的@@
signi@@
Up@@
realistically
exercised
left-@@
资本市场
外国投资@@
Burmese
的故事
透明度和@@
disco@@
Alibaba
open-ended
责任和@@
nonsense
Indone@@
paved
和谐
sik@@
为什么会@@
收入差距@@
说不@@
斯科@@
Theresa
self-determination
自杀
theast
拟议@@
尚早
5万亿美元
修订
regre@@
asures
不是为了@@
目前已经@@
雅克
第四次@@
但同样@@
但是这种@@
intolerance
基础设施项目@@
瑞士
中央情报局@@
pot
GENE@@
闻名@@
巴拿马@@
CHICAGO
ic-@@
佩
惹@@
batan
Beirut
端倪
前沿
释
会认为@@
以帮助@@
tired
逸@@
该方案@@
campaigning
结算@@
ticals
small-scale
san
更喜欢@@
正在成为@@
阿亚图@@
HO@@
的联邦@@
的目的是@@
cronies
罗兴亚@@
legitimize
但愿@@
这个国家
支持其@@
dismantle
三驾马车
Hurricane
这一计划@@
人民币升值@@
warri@@
各地
关于
不经@@
messy
却对@@
stically
体面的@@
经济上@@
post-Cold
pensioners
pursues
hurrican@@
大问题
rewarding
的水平@@
的优@@
和伊斯兰@@
妖@@
舞弊@@
topics
美国家庭@@
停顿
全球化和@@
性行为@@
秉@@
局长@@
pou@@
Grow@@
ingkatan
invading
电网
sink
bombers
木
然大@@
可能引起@@
Scientists
从而降低@@
chaired
2004年
re-elected
Seas
这是对@@
很长时间@@
aupun
depleted
ducing
clearingh@@
之行@@
tat
lobbies
广袤@@
formali@@
republics
locate
的气候@@
athan
LO
多久@@
必须对@@
gade
bekerja
Boli@@
螺旋@@
NE
掀@@
band@@
特网@@
fail@@
double-@@
单单@@
infamous
道德风险
memenu@@
strate@@
Monnet
renew
postpon@@
risiko
stir@@
deception
从而进一步@@
突破性@@
attractiveness
metric
Dali@@
exha@@
decade@@
Okin@@
S.
IBM
向我们@@
每位@@
abruptly
战线@@
年前@@
是全世界@@
销毁@@
fier@@
Soviets
流程
推断@@
buried
但也许@@
或不@@
退出欧元区
这句话@@
marking
sample
治下@@
事项
逾越@@
春天
20世纪90年代末@@
知的
eptive
食品价格@@
tough@@
Alexis
巩固
商人
crucially
corporation
掷@@
heights
的必要条件
treas@@
在二战@@
的一样
全方位@@
一个重要的@@
美的@@
ankan
可再生@@
nice
走向
来保护@@
differential
摩洛@@
ruthless
Alternative
bungan
PENHA@@
坦率@@
合适
村民@@
固执@@
摇摇欲坠@@
championed
delaying
Syn@@
二是@@
贫穷的@@
glimp@@
运气@@
噪@@
是这一@@
民主选举@@
将在今年@@
Lau@@
同道@@
敏锐@@
come@@
tec@@
邪@@
completion
tica
英国经济@@
foreclo@@
crumbling
inherit@@
warrant
nate
唾@@
retirees
但是我们@@
单身@@
低效的@@
刺
纽
保有@@
full-fledged
marijuana
Island
足够
谎@@
非正规@@
储蓄和@@
tahun@@
practic@@
马哈茂德
Voters
Neigh@@
kid@@
prover@@
欧盟和美国@@
弗里德曼
weighted
将来
职务@@
并增加@@
sustainably
降临@@
rent-@@
SE@@
灌输@@
deteriorate
shima
aving
在决定@@
大部分国家@@
冠军@@
关门@@
mana
的就业@@
Analy@@
坐等@@
新来@@
棒
church
枯竭
计划中@@
愿意接受@@
更强大的@@
直接投资
有余
produk@@
xies
中国和其他@@
谜
摩根大通@@
无法实现@@
风险是@@
奥巴马和@@
但一些@@
浪
并能@@
过高
推行的@@
heavy-@@
在一次@@
凯恩@@
vention@@
站在了@@
奇怪的@@
yal
的民粹主义@@
multiculturalism
tiles
拥有
附属@@
Wolfenso@@
wasteful
victorious
委会@@
算是@@
国际收支@@
欧洲央行行长@@
这两项@@
Sad@@
薄熙来@@
高兴
构筑@@
connecting
低油价@@
有两种@@
存在巨大的@@
共同货币@@
noting
lukan
一生@@
并鼓励@@
好战@@
1969
伊朗总统@@
规格@@
别的@@
ür@@
ot-@@
rasi
亲信@@
consen@@
Foot@@
悉@@
强度@@
dish
Ini
种姓@@
陵@@
fri@@
relates
引起的
Ossetia
CDS
序列@@
academ@@
民粹@@
早先@@
cornerstone
我不@@
土耳其人@@
的普遍@@
unexpectedly
validity
鲨鱼@@
非法
debilit@@
不如说@@
出生率@@
interlocu@@
也没@@
ods
淋@@
拉动型@@
有更多的@@
Hig@@
Ahmed
将向@@
为此
aph@@
严格
inauguration
scaling
取而代之@@
研制@@
Sul@@
宽容
inqu@@
fairer
上半年@@
通胀和@@
佬@@
催化剂
tapped
斯蒂格尔@@
头巾@@
naïve
envisaged
Tahrir
银行贷款@@
公平贸易@@
prot@@
钞票@@
praised
最基本的@@
motivations
几率@@
nano@@
可能将@@
怀疑论者@@
等国的@@
低工资@@
这些风险@@
uda
变动@@
相邻@@
突尼斯和@@
基石@@
心理学@@
固
ahnya
严苛@@
permitting
的宗教@@
薄弱
originated
jud@@
重中之重
polity
hair@@
国家主席@@
拥抱@@
soft-@@
manipulating
sians
犯下了@@
拉脱维亚@@
扶持@@
困惑@@
博物馆@@
炭@@
曾几@@
open@@
面前的@@
primar@@
频率@@
自相矛盾@@
赤字和@@
更长
大幅提高@@
暴乱@@
这一次
承担责任
在世界各地@@
深深地@@
基尼@@
cataly@@
里亚@@
eci@@
每一位@@
的美国
目的的@@
诫@@
占GDP的比重@@
过去几年@@
匿名@@
如出一辙
dimen@@
开放社会@@
经济状况@@
十九@@
等领域@@
并允许@@
害怕
民主制度
吸毒@@
筋@@
怖
增长前景@@
曙光
appro@@
估
食用@@
勋@@
明了@@
organiz@@
的根本@@
疫
即在@@
消亡
早
cancel@@
promo@@
它也是@@
ril@@
的政治和@@
特色
比任何@@
回国@@
需要有@@
提供支持
该协定@@
М@@
解决这一@@
驳斥@@
ults
忽略
鸿沟
父辈@@
耻辱@@
fluctu@@
ership
未来几年@@
可达@@
欧盟机构@@
已经使@@
重现@@
Ш@@
坦白@@
签订了@@
achi@@
猫@@
cessive
continu@@
有利可图
在我的@@
意味@@
恭@@
排除
aggreg@@
越来越难以@@
魏@@
而要@@
每个月@@
赌博
密切的@@
帜@@
危机前的@@
dep@@
贷款人
国家主席习近平@@
sses
relati@@
必须接受@@
将迫使@@
各种各@@
pessi@@
BRI@@
发出的@@
眼看@@
日期@@
开战@@
日报
发展趋势@@
总人口的@@
盯@@
戏
Swe@@
希腊经济@@
维持着@@
样子
这反过来@@
俩
therap@@
证券化@@
田
确实是@@
巴塞罗@@
的历史
挪@@
omed
可以避免@@
药方
测算@@
垫@@
实行了@@
heigh@@
持有
rism
大行@@
辩解@@
可以实现@@
紫@@
转向
tren@@
电视台
董@@
锻@@
sper@@
腿@@
politan
Alter@@
什
酷
哺@@
leng@@
ditional
再生@@
跌
洁
拔
moment@@
ethn@@
锐
ound@@
糕@@
讶@@
SO@@
clar@@
喻@@
钩
坦
rough
寓@@
attrac@@
远见@@
荒
belong@@
栋@@
negl@@
晓@@
不复@@
dations
pple
pan-@@
bassador
综@@
盆@@
інд@@
asks
Moder@@
Cent@@
Mig@@
inaug@@
pover@@
朴@@
堆
ratic
life@@
居高不@@
牲@@
延伸@@
connec@@
pa
бұ@@
秒@@
sit@@
扔@@
event@@
gar
结核@@
restaur@@
Corpor@@
lem@@
鼻
mani@@
doctr@@
relation
desper@@
故
thy
plun@@
envis@@
jun@@
bench@@
preci@@
理所@@
pivo@@
annex@@
挺
hosp@@
叛
塔利@@
grou@@
妮@@
墓@@
Gor@@
贝
Vie@@
伐
civil-@@
艰
抑@@
腺@@
蛇@@
绍@@
橄@@
Govern@@
acquisi@@
Д@@
ды@@
estion
aths
stant
indu@@
prosp@@
府@@
莎
accompan@@
ith@@
克里姆林@@
稚@@
玛
糟@@
orist
Nicol@@
拦@@
bial
enh@@
beh@@
弟@@
继
禧@@
娩@@
dation
Sovie@@
潘
毫@@
仗
winds
presum@@
exce@@
Ж@@
蔡@@
尴@@
咋@@
根深蒂@@
traffic@@
facilit@@
至关@@
扮@@
uration
询@@
繁
tu
shall
iny
柏@@
耳
Schum@@
兑
prop@@
atro@@
know@@
吞并@@
尚
换句@@
兀@@
贺@@
analo@@
蠢@@
饶@@
gible
ota
cession
defic@@
Progra@@
祭@@
臃@@
Ener@@
wer
华尔@@
塌@@
gest
incidence
finan@@
ineffici@@
怀
К@@
榄@@
politic@@
tedly
guerril@@
甚
鸿@@
裨@@
bel
tant
旗
菅@@
符
bagai
perv@@
elson
emin@@
薪
切尔@@
na@@
祸
不大@@
destro@@
一体@@
upheav@@
励
ames
循@@
hes@@
争
撰@@
dyn@@
普林斯@@
酋@@
imag@@
help@@
宛@@
enrol@@
You@@
enth-century
灯
恨
munici@@
惜
fic
persecu@@
好消息@@
榨@@
庄
hamp@@
profession@@
罚
situ@@
prohi@@
米尔@@
alien@@
Holl@@
昧@@
主权财富@@
enrich@@
gy-@@
禀@@
batt@@
最
孚@@
tel
ister
娅
令人信@@
outra@@
diplom@@
stantly
投
cher
lebi@@
ify
总值@@
ń@@
ingredi@@
蜜@@
meth@@
isol@@
convers@@
尬
eries
炒@@
妓@@
mise
uled
凌@@
纤@@
济
贱@@
politici@@
邻
coerci@@
stil@@
nav@@
remedi@@
卷土重@@
羁@@
嵌@@
仰
Lat@@
注
inno@@
尾
Sustain@@
伯克@@
挨@@
aur@@
姆斯@@
蛋
诀@@
瘟@@
掌
countr@@
Malay@@
nat@@
克鲁@@
驶@@
bbed
赢
科索@@
祷@@
疾
鹫@@
expe@@
谢
Ky@@
英
鉴
civili@@
abs@@
貌
那时
络@@
mah
摆
树
羽@@
vor@@
锐@@
鼻@@
抨@@
维亚@@
U-@@
摘@@
Tob@@
emerinta@@
县@@
桩@@
usu@@
兽@@
valuations
Kat@@
rink
scienti@@
盎@@
bacter@@
从一开始@@
И@@
农
侦@@
atom@@
Secre@@
西斯@@
裤@@
股
寨@@
王国@@
ã@@
四分之@@
kinan
adver@@
Indu@@
Fuk@@
绥@@
intensi@@
sioner
着眼@@
稼@@
wis@@
occa@@
appear@@
芒@@
终
who@@
滥
cuse
罔@@
Republi@@
鸽@@
ingu@@
皇
theore@@
暇@@
印度尼@@
劲
愈演愈@@
玻@@
蔬@@
浴@@
慈@@
astern
锁
RM@@
victim@@
liers
fel@@
cue
coast@@
enko
赫鲁@@
余
珀@@
book@@
ctic
衅
胸@@
audi@@
fore
gest@@
less@@
rea
agan
wea@@
设
谊@@
billion@@
虫
exagger@@
recor@@
credited
piec@@
Gold@@
彩
必不可@@
衣
ests
complac@@
牛
侯赛@@
unle@@
rements
versity
马斯@@
Belgi@@
secon@@
house@@
dings
鸣@@
分崩离@@
sci@@
厦@@
筛@@
mol@@
legi@@
sim@@
布里@@
É@@
拳@@
hous@@
ju
雷斯@@
偿
eing
stake@@
rais@@
surpris@@
禁
percent@@
thodo@@
渴@@
num@@
悔
notic@@
dat@@
atories
谎
&apos;@@
champ@@
safe@@
Mag@@
匮@@
比以往任何时候@@
Dre@@
克萨@@
拷@@
asy@@
FAR@@
臭名昭著@@
悟@@
刀
辟@@
parliam@@
巫@@
Yu@@
aily
aikan
化合@@
癌
跃
advant@@
冲
gn
扰
pragm@@
睛@@
impedi@@
tus
Bud@@
徊
proble@@
consequ@@
丛@@
closure
duk
克林@@
鞋@@
present@@
perpetr@@
筹
enever
Budd@@
Ш
estim@@
凿@@
Western@@
迷
啸
dreds
延
肘@@
捞@@
徘@@
iti
帝
葡萄@@
依存@@
SC@@
瑚@@
玷@@
慎
consum@@
剩下@@
焕@@
茫@@
斜@@
亚于@@
idly
prefer@@
Clin@@
教科@@
上加@@
弦@@
movi@@
sump@@
剪@@
FOR@@
avoidable
况
淫@@
忘
happ@@
pemerinta@@
渊
矫@@
Med@@
hang
箱
脏
传
telec@@
Т@@
unfol@@
帖@@
毛
tracted
滤@@
resses
incor@@
胆
俾@@
槛
itous
ingdom
alties
Ty@@
maxim@@
魂
ld@@
Jour@@
Fir@@
ago@@
么@@
travel@@
船
mits
satelli@@
lead@@
BRIC@@
mind@@
莱
鹰@@
浑@@
ens@@
这样一@@
硫@@
刷@@
AK@@
oxically
奏
depar@@
mean@@
bass@@
seekers
compens@@
以南@@
я@@
摩
rey
open-@@
池
export-@@
漏
alu@@
cross@@
郁@@
挟@@
isolation@@
印
Q
磷@@
pharmaceu@@
urun@@
嘛@@
喋@@
大规模杀伤性@@
Sou@@
suppor@@
ager
memban@@
missi@@
愉@@
purcha@@
窟@@
Eura@@
留
有利可@@
implic@@
舆@@
俄
abli@@
泽
datory
paraly@@
忡
a-negara
裁
僚@@
aband@@
迫
trigg@@
ь@@
弗
Som@@
东
zations
荣
鬼
标
geograph@@
毕
sensi@@
屋
肯
Manu@@
announ@@
withstanding
yc@@
Pr@@
琼@@
臣@@
搅@@
Cong@@
emerging-@@
踵@@
posse@@
忏@@
悖
depend@@
ock
挡@@
aksin
longed
障
乞@@
旅
纱@@
敛@@
gically
ese-@@
挥
manufactu@@
逝
炸
tility
secular@@
公务@@
子孙@@
conduc@@
ption
猛
绰@@
Thin@@
comment@@
避
sourcing
Fol@@
瘦@@
ugg@@
阿拉法@@
Scienti@@
dening
笔
Tech@@
弃
anks
氟@@
默
eas@@
糖尿@@
urities
岭
反
棍@@
昨@@
ources
Conserv@@
diversi@@
讨价还@@
脸
慌@@
ied
崎@@
饼@@
impor@@
耗
殿@@
immun@@
揭
Cz@@
肢@@
ticip@@
vigor@@
炎
gag@@
youn@@
allow@@
办公@@
胖
Bus@@
terj@@
aim@@
跟
哪里
滩@@
rase
谬
北
Трам@@
pharm@@
Rab@@
onym@@
disman@@
inten@@
楚@@
uments
kun@@
踩@@
漠
昏@@
狄@@
座
resour@@
fty
疹@@
抗生@@
Ris@@
告终
supply-@@
channe@@
aggres@@
售
铺平@@
valu@@
多米@@
氯@@
一无@@
妇
Cle@@
逐
aku
vals
tidak@@
介
倚@@
愈
bered
recommend@@
遗憾@@
oration
tant@@
anu@@
险
特拉@@
treat@@
烧
battle@@
竭
遴@@
bangunan
祥@@
rug@@
逮@@
功
var@@
缄@@
ambigu@@
尺
flation
绌
爬@@
hosti@@
琳
Bul@@
沼@@
dities
扪@@
ô@@
疮@@
ky@@
oting
ird
碳
versary
gency
戛@@
spillo@@
ques
拉美国@@
Ger@@
破
炮
哮@@
彭@@
隘
威
雷曼@@
imperf@@
Mes@@
的人道@@
gas@@
indefin@@
奎@@
涡@@
engah
protec@@
asting
适得其@@
incid@@
fulfill@@
monit@@
Brazili@@
Sau@@
煤
deploy@@
acco
asse@@
忧心@@
竿@@
睦@@
不无@@
喊
propor@@
所作所@@
cele@@
ises
oral
针
Anglo@@
询
沉默
midd@@
净
lim
TON
播
胞@@
kipun
溢@@
敦@@
旦
竖@@
Frank
Scho@@
olig@@
削
anak
征
ference
熔@@
辙@@
Shar@@
到底
巢@@
加利福@@
janjian
dedic@@
可以肯定@@
remin@@
pled@@
Ox@@
臣
关塔@@
ha
das@@
憧@@
rel
苟@@
Consum@@
inju@@
pregn@@
sligh@@
戚@@
澜
Bangla@@
预示@@
credi@@
峙
overwhel@@
dict
bless@@
施
rav@@
溺@@
upgra@@
株@@
Venezuel@@
fortunately
asion
medium-@@
朽@@
neutra@@
牙
domes@@
芯@@
壑@@
直升机@@
blow@@
shrin@@
帽@@
气体@@
pers@@
刹@@
bot@@
窄
UL
cana
杯
历
格林斯@@
惰@@
暴
gang
tance
mittedly
更
恕@@
crum@@
脂@@
夜
sugg@@
Jun@@
坠
Int@@
tac@@
姻
阶@@
吐@@
钩@@
锦@@
attered
totali@@
PEC
酬@@
庸置@@
趁@@
math
conveni@@
镇
impin
典
Span@@
manipul@@
尼克@@
dir@@
Lab@@
京都@@
改
姓@@
ves@@
巴拉克@@
Aca@@
obse@@
approach@@
躇@@
tis@@
彦@@
Philipp@@
原
痕
discer@@
stored
涩@@
prou@@
sue
藐@@
Kir@@
oul
Kore@@
跚@@
苗@@
随处@@
诠@@
萨尔科@@
norm@@
Regi@@
遇
Cer@@
咬@@
tribun@@
踌@@
ingk@@
波罗@@
扼@@
罗格@@
仁
ud
共
oping
oci@@
昂
isms
伏
太大而不能@@
camp@@
Refuge@@
世界卫生@@
芽
梁@@
民党@@
tradi@@
米尔
聚焦@@
viously
simul@@
岭@@
驳
obser@@
catastroph@@
ole@@
取而代@@
hou@@
tsunam@@
sioners
[...]
